-- Copyright (C) 1991-2016 Altera Corporation. All rights reserved.
-- Your use of Altera Corporation's design tools, logic functions 
-- and other software and tools, and its AMPP partner logic 
-- functions, and any output files from any of the foregoing 
-- (including device programming or simulation files), and any 
-- associated documentation or information are expressly subject 
-- to the terms and conditions of the Altera Program License 
-- Subscription Agreement, the Altera Quartus Prime License Agreement,
-- the Altera MegaCore Function License Agreement, or other 
-- applicable license agreement, including, without limitation, 
-- that your use is for the sole purpose of programming logic 
-- devices manufactured by Altera and sold by Altera or its 
-- authorized distributors.  Please refer to the applicable 
-- agreement for further details.

-- Quartus Prime generated Memory Initialization File (.mif)


WIDTH=112;
DEPTH=2710;

ADDRESS_RADIX=UNS;
DATA_RADIX=HEX;

CONTENT BEGIN
0      :    91327E5947C624EEA5F01B5AE2F5;
1      :    51852AB2CCCE21B25327A55C92B2;
2      :    E4221755755A290ED2BC75E37CF6;
3      :    B639007F7BC5E6D08E181324C768;
4      :    EB763C64AC848C60F77072BB73F;
5      :    C216D3F99FBA522C31D2A97D7434;
6      :    55175F840621C80F418DE165A54E;
7      :    BF614585673BC985341FD32DC483;
8      :    EDD1724391B661234B3738C308D4;

9      :    E02250DF5B9DE8A0BF3A510D86A8;
10      :    EF2CC6F7FDF764D2957F53A7CF2F;
11      :    186AEBAE8EFCBED18E5D1D146213;
12      :    B555A2EE5FC24E69B9E04529D691;
13      :    4005CBF5F8EE1E62300751990AFB;
14      :    2ED3CA2BD934DA212A5D27898C83;
15      :    39CCBCABFCBC9D7DD8EBD4D27BF3;
16      :    FFC0BE6DB5BC0D6B52D7DDDA08D6;
17      :    2982B660D7B72F6BD2DCB962D8E6;
18      :    98490C38C547A75A2BF076DA9087;
19      :    56D1DD8C85121F12D2B632E118C3;
20      :    1836886C3077940CE2107815EC9B;
21      :    EF1705D58733CD5587AFB365A70A;
22      :    ED7DA3FFFDB2CBCFD76F94B93537;
23      :    7124EC1FFADA8DD18488B36CBA19;
24      :    1027BC474EC616FAB3E00BF6D670;
25      :    104EF388C7C136AFB489FBA3E71;
26      :    431C80A8A42D0F289471B3BC529;
27      :    F7273B37777FAC27F96FF93FA3AA;
28      :    87065A52DCC47D01C314416918E0;
29      :    E7593563D747A4A17C338EC3183E;
30      :    10101C6C1457FDF3F95E5C0383B9;
31      :    88CA8111C49AD206F0A04C42A0B3;
32      :    6E41A5897035E1A07234E3C848D7;
33      :    A52DEC3706C65CF1A7E892118B63;
34      :    359510B89CA1CB70E0ECA4900B49;
35      :    35CD369A3C330D1854F9D7D24AC7;
36      :    673137276AC68013180AD1B52ECA;
37      :    FF113E3E7F5E2F32D0A22DD69EFB;
38      :    D59CAC6DA741E0B9D87809050420;
39      :    54A3369A59FDA9BC7FE6520B71F1;
40      :    5000223D4895861935384400C349;
41      :    8812B8FE61C989ACA2802889617C;
42      :    FE8BB20FFC7E9F3E7DFA26DBBBB3;
43      :    9EB92008234FCED90D1E22008C2B;
44      :    CD9990FDB74193B8EC27449999CB;
45      :    72B11E733AC820EA83E803BE29F4;
46      :    502015C8588C25C0C3FF75C476B4;
47      :    94200E415EC62562D2D00BD9BC61;
48      :    7F457C31B436BBF8F44BDE4A7840;
49      :    758C9D08A000DE51F443AE2D2D61;
50      :    B49500230119619A8AC8CA0895B;
51      :    774E0F723BD9C921705FE1A05006;
52      :    77B6FF577DE779AECCF49859A6E7;
53      :    2FA415C84224C92F003798230080;
54      :    A4135D40A03949256006F148218C;
55      :    F55162D553501A193305EB018187;
56      :    3D8BBC9C4A60A6F1574E0B3AC349;
57      :    562940CD638256C627352365CC5E;
58      :    1E37736DD45E873E79B2AC58B543;
59      :    7E1B049871C5D0D68C2302CDC769;
60      :    C00B2A19CFDC30A9AA7666D8308D;
61      :    99FF1C9B790B108804B69244FF77;
62      :    55C83A1268CF8E3C80F65E92D2C6;
63      :    15A8EC136ABBFD34D447F1DA5EF3;
64      :    4089AE455784ACAA01EE41DA1034;
65      :    853155C5E61DE1BC809B5318EDE1;
66      :    6776E3767E5D6A34A34F84323328;
67      :    5279713422F57F25B8F05431DF69;
68      :    87CBCFD5C34B8F4C97E4FB81F37;
69      :    BF7FF9EFE475FBF95C89ECCDB52E;
70      :    A99EF5ABCF7E91BB0AAEB6EF6BF2;
71      :    3CFDCC2EEBE397F189899E5403D8;
72      :    42A30908A103923CD4276A4A0CB4;
73      :    4211862B0081D4800DCA1C9E1910;
74      :    D7DD4B8008125A94021764CD200E;
75      :    84CD28A6C9D81DA878CB22CF31B9;
76      :    8CAE5C3FA90236D7E88CC7124CA2;
77      :    89AC302BA2AB8FA85457308350A5;
78      :    C63E61BB6EADF442B9AAC96334F8;
79      :    DE564AEB6F52E22E0F40A76E006C;
80      :    7EB717DFEFCC74F427FF2B77F6D6;
81      :    20718C48B92C465D7D4858076928;
82      :    28CFCD8EA04DAEF2EA82FC8279A3;
83      :    85EF928A00036593040588068D0;
84      :    53143F5757E0C886A590A323A10C;
85      :    F1A374B4DA362FE42D7FFB3D7EBB;
86      :    E00E837403399844033FBD8005E8;
87      :    FB376ACFFBCE62D81F76F34ED384;
88      :    F8354ACDB302520815A1312CDE26;
89      :    95132DA55387EA0F3C7D83450B00;
90      :    906DCF83E925C6C484621211E24B;
91      :    6CECC94B87161B34D6327FD31A36;
92      :    AD520930AC5E8900E0C3B06C0EB;
93      :    B3D88D23C4B21817BA239BD9DF96;
94      :    54C1828BB365F4BDA72B0A21C9C;
95      :    2DAB7DE53E296005432BD114E622;
96      :    B9155D833BD2C7424DE4016F9708;
97      :    E26B4596058A2F54DBF9231772F7;
98      :    322EEA3A3ECE27D6FF693BAF3EF8;
99      :    151DBDB3EE45F6FAC7889B26EBAE;
100      :    9998997BA890172CB257389A1496;
101      :    64184A625E86141081380248D22E;
102      :    261DFC3B5BF7E722ADBD3F0BB158;
103      :    2EDD878E2AB099472B6FA5259432;
104      :    F1B0EDEFEF61811718035CDCA9DC;
105      :    698EB64B5C269F18F3CAC8737452;
106      :    3A5FBFB06EF857BCFB69A607FF76;
107      :    3A3BA9EE72E537FC7EB9221772DC;
108      :    DAF6E05A4F187D985A66B5A45CF7;
109      :    18DF35F83880E6798B4A0296CB6D;
110      :    CB6E265E21027F4CD8DF0B517774;
111      :    2A057C864CA4D1272CAD72E186DF;
112      :    BF44E10091345A91259EEA210124;
113      :    BEC4DFCC44B9EF1D893BA629D76C;
114      :    423F0E746FA4448F0939957167FC;
115      :    C8319CD3D8ECCD79117D58523B60;
116      :    7537267ADD7E05F8D88A90FFD034;
117      :    3123FD471AC65ACEAED957E9A77F;
118      :    68CDCFC1C5BB8C369743A5D4F8B6;
119      :    3149FA9EC7E41CF6A6380C96CF9F;
120      :    126AD9789E02FE40BB4401D49BD5;
121      :    E6E0C32D3B8CF767BB302FFBBF15;
122      :    BC01D48BB6363AF5AFCC5A1DEC85;
123      :    3FC9FD0485241D37DCCBEFA86FD9;
124      :    FFB69DA28176110F51AF97AD3CCE;
125      :    4E8557B81EC8010CC1ECB4557E30;
126      :    EAF4F21B99CC77F8BDD3962AEFE6;
127      :    929E5242EA8E1752B0204930F5D9;
128      :    CA6ABEA9880157BC2CC24EF19BCC;
129      :    9DAD6DAFDF39D425DF27E43F1FCA;
130      :    4F4B430595B1C86569B810E7CC04;
131      :    EA8493C1533BDE994C9D06EDAE5C;
132      :    3E3CFC05335D4DF458E8511CD1E8;
133      :    10A4B678DE47BBAAD3A82EB62870;
134      :    226BFE05B552A1B33BDE788A74E8;
135      :    DD8E80EA24112F30C409C97CDE9;
136      :    2C4E9C4DF433B31F5A85D4DBA0AB;
137      :    A9898F008071D1731A19EFC30ABA;
138      :    147AF45C964E37D7E7B06ECEBA90;
139      :    AFA7DDB8DA7BF86FD35D426DFC;
140      :    CE33CA53439B96C264376BCF553E;
141      :    8A18DB87D7B5C03C95C76AA9AE14;
142      :    641AD9F4423FC96C194D0572D55C;
143      :    C06166D47CEAEF8B57B1794EF0B6;
144      :    70C4A9F8ADE83B4CD75504F25B71;
145      :    CBBF28F35B6D76BC9DF1911E63F7;
146      :    6FDFA7FC7B9958AE2F6FDE2657BE;
147      :    7BCFD0E2D53B130D69D77CDC198F;
148      :    852A51AF3165F8997AAD5DE9328F;
149      :    96714C42A92CE0796D30D16146A4;
150      :    752DD4CA40B655CAD07084A65C39;
151      :    5404EA62F9C4042B8C048FFB8F10;
152      :    D40B62649C505C00967501278538;
153      :    29CD0921878B7769BA41B8C55E8A;
154      :    8DEA00088FC20489715331929AB4;
155      :    9D2C6ECB4B2A4BF9DCDCED5CBEC7;
156      :    DE19102C05914610C4630215910A;
157      :    A20848C0533058D5AC0840448521;
158      :    16C8134C30B392D0CC3E08E98575;
159      :    FC9143F9A7364084772FD269DE00;
160      :    1F3F7BD6FDFDECEE8F2DC323B75E;
161      :    9980FE8EBD9CBAFEBEEB7EC659CB;
162      :    51A4F401FD40B59BF7C0DF5D7EC3;
163      :    51BA6C52024D38306046531BE6C4;
164      :    C2B290100948610802C8DC48A6C9;
165      :    9FF7645CC9698F52047F8AED506F;
166      :    29E2A13AC6B1AEFFEEE75C1211EE;
167      :    1CE68D9E233D8F9559D15D2CFD5F;
168      :    5C598883C5AD8C13C11FC76C8317;
169      :    9441D0C1C520C3CAC49037ED841F;
170      :    5BF1A58E4E344B9D1FC3AF2AA04A;
171      :    9815530140C20881353F1B49C466;
172      :    34CC9069A9965E10C1C03A8F0746;
173      :    1A8689EAAC0E9652A4E04E863069;
174      :    511DC7870EBF448E39F7B315B212;
175      :    25B1758A5C3662CDFA9553165650;
176      :    3FE65D2A2EA5FD9D4D89F821654E;
177      :    A7D634C563C70C93CEBDC364D57E;
178      :    3F6C0C8C647A4B7F73FED5A22296;
179      :    35CBE1A58E174FAC9FBB8DFE9B0;
180      :    548D3ACD543A9D7A63FBC74994E4;
181      :    F1FC36DD528D1F74F54ADE52C0EE;
182      :    D0DEB7FDADE7BEFCF4CBE496B33D;
183      :    2762E77DB3FBBFB0D02F98A4D463;
184      :    7BCABF34EC3B13F9BAF5AA80DB2F;
185      :    DB6704129D4DB1905C8D4A29131D;
186      :    CF3FF73047F67DAF413A277DA73E;
187      :    766FAE397BA0EE9F64A88EB69E70;
188      :    713D8FE72CFA11C5FC598EBA530B;
189      :    F2372A63368306D6F16CA4DE6DD5;
190      :    1375776B5FAA8B73A371B77EFDB8;
191      :    40081A225A8600508B4055F20BF4;
192      :    7661F78B579AAB62BF1CA92BA6BD;
193      :    1889A89C6BCDE20D3E962B0E334A;
194      :    5A5A9FDD44FDBE3F3DC04AF2EB45;
195      :    45C6CBCB8C181D563827A2599C06;
196      :    908B845605BA70AE0477CC1088E;
197      :    33FAB57F113FBDB9DC864A8A8B4B;
198      :    1238FC803A9DB854A0BF0A1493C9;
199      :    C4DBE937BB7B5774D0C25DBBEF80;
200      :    56B76FF57F3C4D46B573BF7F9237;
201      :    8F0320A025897B9ECDA0E8BDB60;
202      :    6D5B059024AA8D04B01040A38A7E;
203      :    50A93B624A0FE09DE590403A8FE1;
204      :    7F7BDE1C256FAF8F5C8BFE81854A;
205      :    958AB684A019DBD3549B8E48E080;
206      :    1449B280284097B854C44E088A42;
207      :    90A9F84E5244BE2904ADD63BC645;
208      :    F8AFB2C5ED487DBC54977AE9DACF;
209      :    6C1B002DA49B2991EC44602BAC3;
210      :    B2D65F69D9BE6EF89DABBE402673;
211      :    6EF1F486EF104AF98EBE35AA6B6B;
212      :    3DD4195E1497BF38F8E4DE994A4B;
213      :    C6535A6BB932521328B402138439;
214      :    5EEBDE4901A6EB3015ECC249243F;
215      :    BBED5ACC025DEEB8CA84EBD8F5B;
216      :    ECC9079233090E81321464158036;
217      :    B66D1CBF0DE62DDBE0EF9FDDDA0D;
218      :    49CE1DB8284D2D5F23DAF8547006;
219      :    80C022D74CDA2B4603662948953F;
220      :    EE0019F1360E884EAA0611557CE7;
221      :    BEF222FB4148E84406373C396601;
222      :    29469F2C287517C1C253C98061B2;
223      :    8B44574B28E627434A25D9390C98;
224      :    69075BC8197A7005AA1F28BC38AA;
225      :    CF3643FF637FAAB73B1FF70FF16C;
226      :    BE4DF347CBA6E4E2AB6BE08F1EBB;
227      :    FF7743AC0C7BC8FDEE5FD085F12E;
228      :    A16A407761C3754A5900584B9254;
229      :    633F6F1C34D6422AFB08E5DA1CD3;
230      :    182A40E8D2C760F467600FB004C4;
231      :    32CDBC3A2C04233BFAD451EE5AE2;
232      :    3FECF5118DAE652F5C5F039F5EC4;
233      :    71E39C2120201759FAE8D615C67C;
234      :    70AE6E0FE606E4F0AC183B7888A9;
235      :    69EF955C11CA12FCE0272C5A702C;
236      :    94F463FC43D9A2D9EEAF7385DCAB;
237      :    85828208AE410C2B57006521606;
238      :    EA3112514B8445F8D6D211D836D1;
239      :    44690BEFCBB94CF2BF52473492B9;
240      :    FFDBCC85E707C698A99F42ED8D8B;
241      :    BFE23882753BB9033CB7A4DD0817;
242      :    7BCB0CAC46737B95D28FFEC7890F;
243      :    6AD2DD6BA53AFB35701C6F9A5884;
244      :    973761EEDEEE42A79765517FF6F2;
245      :    157840062245C4D3A0685E158B5B;
246      :    6AC7946398385B3FDAEAA8BA3C8E;
247      :    9CA2D815916BF6AB90D855D45E32;
248      :    CDD271E1D7E592FF7DAE09FF3A76;
249      :    2CA14588D83F535C54A006E71641;
250      :    269FEA1CCEC5FD50A8A083D82D37;
251      :    D2840818785BEB56D4006CB87DCB;
252      :    CC8FC78BA3CA4FB5E22441FB1CB6;
253      :    7028F5D3D6CE228C0DB52D37C58A;
254      :    D432A458A3CE7618823055146BD0;
255      :    7348DFA8FD97BD1B54D2ECDF1D97;
256      :    70F9EB66E8D562F6C3704ABEE6AA;
257      :    70DB4F9008B55E2C37DF3F9E578B;
258      :    FE5D54436731C90E56AFA10E8740;
259      :    244FA42EF337CD187E9CEA6A159C;
260      :    4EFC43C62E2AF1807B65E2698527;
261      :    513D2A626F44ADF28438F8B1E4A4;
262      :    9943A180ACFA0A88D408B929D00;
263      :    4CBA900AA8393110F11451A3B885;
264      :    D6B548150EE1AA58859AEB08A31C;
265      :    50E970713171E7F8F8DB07C31A55;
266      :    88B2DA054CBB6B6CA1F7FDB520A7;
267      :    B7F9FC874777F9A33EFFFAB2EEC2;
268      :    BB44150BA535DF2BD89DA1C34857;
269      :    3DE8DE96C419CB1B44AD31C90A6A;
270      :    2B3FD887BADC7E9C2EDFF7B47E22;
271      :    BF9F95C7B9965A1C1ECDB6477F75;
272      :    1AE31C624E4C369884811E41D3E4;
273      :    1BE940D6B45037082302AC8AC5;
274      :    BEDBBD498331D718A007DAA38D0C;
275      :    F358D0D73B19C5F441B0B89972B;
276      :    A69DC6185C1C0A59A10EC3DB1ADC;
277      :    26D56280CA6856CB0AB6816D9530;
278      :    1F7BEBDE7BCCC09E27BD728EE236;
279      :    F73772D24F23C2A9545FE70D9323;
280      :    EE7FC3E5DB955245A931508D9664;
281      :    2A3362F37995C0812B3FF726E30F;
282      :    5F11548975364BFD69BD8D4910DC;
283      :    4C380A3424C6E3DA4D2072498769;
284      :    866224DF88C360B79A2DD680ECD;
285      :    167D2B9F497CEDD61E7C2665B38F;
286      :    10E8B829B0E5D6FAD4C24C925BC4;
287      :    EBEBF43BD94CD7B8703F2A0FDEC8;
288      :    94EB63C5BD864E5C072F6866C06E;
289      :    1C09B06582444010440406AF8F20;
290      :    CA928858B834921DC05E4E134685;
291      :    11D7320BD2441B38ACF00C3BD7D5;
292      :    51D1D5B00A8048984998B6805E05;
293      :    3B463AF81600A7297480FD6E55EE;
294      :    FF49BF80E43FD13DF39FEEE5188A;
295      :    31963C696B3C911457800B1175B;
296      :    BEE93CCB50BDD93E2497CEA94E4F;
297      :    3FC94F462AE7A9425F3FA3BEFB0F;
298      :    6CC8DD9C8638BF4DF2DDEBC538C2;
299      :    13293D0E2261F0BC6CF8A2B6178C;
300      :    45BD267762A2CAED02B0E1CD9319;
301      :    BD0459603222064323E7147D2C15;
302      :    F17729A22330C6564C8177C4EB0F;
303      :    13366AC87FC738E0DFF03BF25FF4;
304      :    45368C3AFCC67879CAF0C09E6898;
305      :    910C8641C894253AE66008DE1AFC;
306      :    538F5BADCC838ED6BE58A4A549AE;
307      :    BCEAE47D8E76F6D2CEB038D609EC;
308      :    64001F63D7DA4A065217851FE296;
309      :    C49A82C573C36AC00F471A48A631;
310      :    2A5C2196263A32732A2BFC4D4013;
311      :    C12FC1FECBC9F984D72FA35DDE75;
312      :    3100C07028290561B64523B4AC02;
313      :    778E2B10DE51990C157FD52B9C66;
314      :    69A6BD3EF81CA90DA88922123BEB;
315      :    F8BDC682E5E976992460365052F3;
316      :    A6DE8DBE38413F355D58FEC26B2E;
317      :    10FE24784E4E25DB47FABA9671D3;
318      :    C420434F4AE0C204450DDB6C0466;
319      :    FFE46C072B0ECC9A5D3B001072D;
320      :    FE1692A509755451051ED3EC0D04;
321      :    4019174F54A40636EAE015F28BBF;
322      :    50581F3CF4430157B170085C63B0;
323      :    89B12271C8C430B2A46718B21214;
324      :    67527E8663E520D37A3DD56F2872;
325      :    B77B5DB66164D385650BD6A7E88E;
326      :    79CF818C390092596E83CF2D2A0F;
327      :    B466B4771ED660CED7A8132BF6F1;
328      :    55A6E7335FC36A3A2FEB0B7F23F2;
329      :    DB935E063B26C43BC6C19F38038B;
330      :    52AC18083447144039480510432D;
331      :    900238224882DE5B7A404652B219;
332      :    48B6B37359947329C8C78CC2357E;
333      :    D0357F6966CA239697253F6EB5B0;
334      :    22B4541FF7E9AF976C78F64FC14B;
335      :    321816F398085AE875BABF68F8A0;
336      :    8402531129C2608622F04A0410FE;
337      :    CE17281BF8C5A9FA7BD41A06F5DF;
338      :    8822D44D808ABFF9AA64C3013E7;
339      :    74101D856580DE123D8920E4841F;
340      :    908A901098E84682A042AC510411;
341      :    3B9308463727D614A917264B00D3;
342      :    48A149414590628A71333A7814A4;
343      :    D00130610704206808D5C5224000;
344      :    9D80F8010E81C52391A135DACE0C;
345      :    98CDB698ACF83D0EB0BE8D80D9E7;
346      :    4274AA105845A3B264360D8B4578;
347      :    62AA3610058FAB321EEE2A0250F5;
348      :    9BB7A9DB887CFFA71E473E203FCB;
349      :    8DAFCDEF15B3EFC9008918B56F2E;
350      :    D5CAB623D919B2C2B6C2AEBB7A57;
351      :    7140FD3EB1AE1FE4CB01FC9B7AD2;
352      :    A7403F4B32BB7DBEFF5FF39F3EA7;
353      :    FB77D5E7ABEC18E51F42C3AE72C3;
354      :    78E897B0D1737927FA14787BC2C2;
355      :    7E5AFF3CE3D1A88DF6A12D3FDF96;
356      :    EC43AB15C6E50ECAE2E145236F9B;
357      :    60EC028E180117D3330664086A23;
358      :    7100BE703A860D127A6458B8DEC5;
359      :    757629B60C638555A8013FA929A1;
360      :    973D16D48EDE25CA479BB3D8EB64;
361      :    151AB307008B68B6024571135481;
362      :    94494481274324D1246513858F20;
363      :    357F4E2A0E8447F011D012F27DD9;
364      :    423658E02F9E0C568930042668B1;
365      :    32B9223AEE540F9A1C7997BECA33;
366      :    5CE30E2E8501D01FA80D58D52D0D;
367      :    9CE8AD8F80A08727EB27ACFD4DC3;
368      :    2DDCDC8EB443993078AFD0F72BA7;
369      :    91B96D807E0E14ECA8204F328CC8;
370      :    F08077034B15DD3A50C86E53E8D1;
371      :    5CFD54A460C8749A156C9E20A021;
372      :    20E93022A08194530C0006828352;
373      :    F46715B99439C9ADFCCC43599449;
374      :    55673C7440DDE8DEC77AAA50636F;
375      :    BF4D7169F53F8FFFD416EECB0B49;
376      :    5FC534864E71C92FD0B182E05EF2;
377      :    3F6AB280D53BADB9DC89EE5783BB;
378      :    78C0BE419793353AF1484DD3FE44;
379      :    56052BC26A844C629F140F2CB761;
380      :    F6BBF4619AB4D7D0E9507DB3EC55;
381      :    6222191230080D2640044622C841;
382      :    D5EA347383711238D634B32B6687;
383      :    FF0D7543ADB4112CFA0BD0A30DE8;
384      :    F58AD7A999B01BB8B88388C47A53;
385      :    BEA1AD4566B2A00BA40866288012;
386      :    66FE9D702F0B3B0E5A7935C478B3;
387      :    3D406D86310C055725553C8A9A92;
388      :    A7217DE7A735890F429DFB4D3880;
389      :    BF47F71E5C3DCF6FFBBDF29F31C8;
390      :    2AD6639799DADC266A88C05A10BB;
391      :    A03C8917B7E76C58B9282B3AE578;
392      :    CEB32A3D2F682F622370B1DB7FB8;
393      :    C08EAFFBB849F7205B60A182789D;
394      :    55228E73C2D1AAA01C748F639C04;
395      :    DC5441D315BE72A42852203E34C4;
396      :    D2CB8459D508D922A1D92DD3D8D5;
397      :    FF1B9EDC3745B2D3C7BCB4E03FD7;
398      :    1AA13F8ADA7CF1AE042797803AE3;
399      :    E19236072B60C00C48263AE9644;
400      :    23A6A7EB0ABFE22C25531EBFE64D;
401      :    FFA761E3397F60840F1FB63DF7CE;
402      :    1B6B14380A25EE59ACD08E08FBE1;
403      :    469D020E44B2169487800B10C83;
404      :    FE68A50505B254B70A415D979B5;
405      :    60DF09206A1DCA357C44C094E800;
406      :    6089A9EB51B69B342A528E974A63;
407      :    5C0F498648300C9827D8CA9DCB41;
408      :    A1E3A234C7DAD9E163A52E5ED271;
409      :    6C45EFEA7A354DAAA9E86F477275;
410      :    31FE3CAF39F5BBFBA3CBFE1276D8;
411      :    CC87C397C3D9C79F1A83294DE134;
412      :    475A9E7FD7F5FDC216E8AB2821AF;
413      :    4A9EE4D891C880EB2A812DCBECDC;
414      :    8008A3EB2A09326BF0D65437DE35;
415      :    4480D845010A400309800065A536;
416      :    1821C04C2402C041BA664000AB2D;
417      :    21CEFA69805F5F3920408CB80DDD;
418      :    A131382815442695E5217C96D0C6;
419      :    E54563D1C70AC3E63027D532949A;
420      :    548ECB1DA619799DDCAFDBD5F70A;
421      :    2A9795FED88B70EA73A76614737A;
422      :    468A4F37B6CFC2FABFE74D7FD97D;
423      :    1FDA79D7EB87C76FBC919B54335C;
424      :    ACC703AFC23AE90603B54129BCDB;
425      :    A81B1DD72B49FAB6059C8A67EF8E;
426      :    83310467DFD35AD00C1B5BFA9459;
427      :    1C688A3D5C0EB76A6340E3756910;
428      :    75A94BF710C640D40677384DF455;
429      :    9D151DBEA44F0C3682B7A2B1D6A6;
430      :    19E01435033CB411FA5235820AC4;
431      :    EDC038E515778D075889447174C0;
432      :    5A97E2FDC38AE02B4AA9230C571D;
433      :    C4B3746DF5E1C23B980D5061FE3F;
434      :    C9D85FEDC16AE70CF3DF246B569D;
435      :    6AF02E31DC9FF92DF3F96CD21AC7;
436      :    913430FF802B9871560559E5AD;
437      :    1B79B6BEB8CD8FD6DCA0CFC4F9C3;
438      :    4ADBC03E1209D93C887E4CB50D09;
439      :    48CDFB65A99FD1B0BF670ADF6F7F;
440      :    8CF38901820054D420661B90A925;
441      :    A8C8026DBD3852570243FA064C8D;
442      :    2A5D82CE0F2A060D9895156F2C38;
443      :    8493237B6FE2682E4326794F70B6;
444      :    48B20B60BD4BF94ED9A044EC39BF;
445      :    50232119A00477BA9B5A0FA1FCE1;
446      :    E2325E2117D9A0E85AEC007748E8;
447      :    F98F48AB105D739941CE6A299F3;
448      :    2FD375A590201397DD428EFB3C89;
449      :    2ED36996DA0440131E2646E524CF;
450      :    92783CC3AB8F04F80570173B35FE;
451      :    B763DEE1BC40DF80E80D9B6FFCF;
452      :    1886B5B6D46C3EF53AC3F40671CF;
453      :    2580F4C38520834979156BAF0C66;
454      :    3910780F93242FF995E7B4B10269;
455      :    4B68EC2CC2375B39E03B593D9D4E;
456      :    903B3ED2E38201AA70BD01369630;
457      :    103F566A6AC7E3D3CCF801061370;
458      :    D511B448502080A84CA594C20A70;
459      :    D40E4194090060058F7077CDE50C;
460      :    41734A303AC09600067080DDC5A1;
461      :    601BDFBE8F7C6284BB5080F37C7A;
462      :    8960FE10B55FF23BB3E8FCDAB8D2;
463      :    7FACBF1E65EFEFB02F7ADBEFEA97;
464      :    AF4E3F56BFB0CCEFF68EFF9DBBD3;
465      :    79802161B1031C60F0537F3A5942;
466      :    C88A1BE586432C84A0D7611E00AF;
467      :    8852892480081459A2432730C1CA;
468      :    AC2B9E75C6E570EB2BF42130DFB9;
469      :    F0836D8302AA53611048D914DD;
470      :    2CDC6838B025F67588083CB213B8;
471      :    BBF67D2FFE9555553FFAB98F68C4;
472      :    577E655063B5DC6D46F8FBB72C08;
473      :    2F4249E4117A1B0F2867F83534B0;
474      :    77364FF797F66F1CDBCEFBB7EE50;
475      :    300749A428C26456D7E11B36673C;
476      :    21024E543E3D6F62D3E0DCFA6CE0;
477      :    27A476FBAEFD8278DCAAB7E770E4;
478      :    E7376FA46FE111878351D5F7F758;
479      :    5A008A464080153813341760472;
480      :    3D84DFFDE5A76A4F4B89C4F49BDF;
481      :    65E46D00C0E0361BB0F0D4A909B4;
482      :    288A800C58E1218067400060178;
483      :    277391FC66FA7296EFD59ECDEE11;
484      :    3D3B44C8EA85D4D2677CF635EE09;
485      :    2619F62C2C6BA2756061C44B37A2;
486      :    76FFE3D44278EBA66A3EFFFDE4AE;
487      :    1E7BEBCE42D94C9C0336C6F1A861;
488      :    BFE9BC08B1309EFCB08E5E23CCC3;
489      :    91B11DD5774DE9BAFFAC494AD2F6;
490      :    11A03E11D07F89A8F4884AD27254;
491      :    D8C2BE45E4C9E999C5383FC8F80A;
492      :    551E7A79C8B0D158B4008023C97F;
493      :    5EFDD2496BB19F909C1803B1E42E;
494      :    C8B8D22BC888C11E97352C89A111;
495      :    729FF7BDEE3DEB1F3BBBBB47F1FE;
496      :    FE51DCC7B8B7C9CD2D9F6B99653D;
497      :    75C9698A523DCCFBF888C51D9709;
498      :    67BDBF947CC81DB7D09BAB7B92F3;
499      :    702D5315121A59EE970AA6181A30;
500      :    422042087890025084F207B10D00;
501      :    17139F878283479E971ED9473C8;
502      :    15013519C4C543044808571111E2;
503      :    D560148334E61DA3D48CD04144D3;
504      :    A679D998D57A51D5DC97126DBFCB;
505      :    920FFAA9F7A7F6FB3C50BB993FCE;
506      :    1CCED4AE2201DE980CCBC394ED48;
507      :    D745AA33479FA5826F75DA0DC573;
508      :    6D705BEDA477A98E439E94AFD910;
509      :    5DD1604402805208203D281B4208;
510      :    BA1D0FA23ABC4EED97E0EFB0F616;
511      :    52383E723FCF2CFFDEC8B656F2FD;
512      :    3AB66AB3BE9C6760B6DB32D03BDF;
513      :    F75143554504E83D75509462A400;
514      :    C8F5C9B1A41CFC3DF258E3628C05;
515      :    C60FE29DA60E4807D770F34AB6B4;
516      :    A93418696C87ABA2B17119D84B19;
517      :    C8404890C04BAC8610B7C99991AF;
518      :    20C818001C43AECBA88040C261A1;
519      :    DB7EEEEF1FFEBEDDBEB5CFEFB7F7;
520      :    EB6387DE655CF486ABC535C772F3;
521      :    51C69D2E28D13FD7EA09D8467DC9;
522      :    E4EE9029B0129A39A8CA8897845F;
523      :    DDFFC1F70F2E17884FD7AB4F11DB;
524      :    3DD394B02219AF5A58CF47012509;
525      :    4DEEC45A9ABF9B5A35D49F757415;
526      :    E3ECDDFF5B7A7ABE36F7916EFADE;
527      :    A3DB746ADDCDB6E707633BEC6BFE;
528      :    31088C449AD43B380088110EE364;
529      :    A0344363DF0C40A529015B004225;
530      :    3441C2A22AA2D007412DC1AF9634;
531      :    508B8A42C6CB96C89D800A4CB911;
532      :    758AB3FBBDAE2F6D3218DE807FD3;
533      :    AF8AD15923527FF22CAFFF8DCE37;
534      :    81C51F9801EB430A2671CD811A3;
535      :    ADE041E533604083A4578D716031;
536      :    710DD7ED61AE348A7AF7A644D034;
537      :    29A142C092DBC2033B5F0B2D74BE;
538      :    63442A7879616B97C1E5347D1B80;
539      :    37BFFEFDFC5F2DB745C5DDFFF6D8;
540      :    48934821C264102AA8E011B2ACC9;
541      :    F6D8A8663814C1FE18268E639E6D;
542      :    C826C319D8C0105A74E66EE7A4D4;
543      :    228995F0ACBDE32960D82CB21D69;
544      :    84D7F27B5DB259E61F628439A274;
545      :    DCC2DC1A2845F7982D886E40C72F;
546      :    D9CAD93A0133D328FAE2C487191E;
547      :    3699494F50DAFFA2562F4E6FD1B7;
548      :    1CFD3E8663479B8A8CF742038B1B;
549      :    F133BE533F0691E2EFF46357F2FC;
550      :    F117DFF3CDFE353E7AA0BDC4FEF6;
551      :    327FFCBE7CDE2FBACE851EF6FFF6;
552      :    B4D03D7E30CE3F1EFC259F5F9B96;
553      :    56C15EB910A233097BC059AB0985;
554      :    260AC6A9F4525A12647C4265099C;
555      :    340010E0B94507D0FC482290316C;
556      :    E01189F389370960DAA08DD29374;
557      :    ED3324C563F069804C2F9387C264;
558      :    217B1C286DD06743CE744542DA25;
559      :    F40CBB475FAEFA2F7AF42D51975F;
560      :    69B87B836332050992BF3BFEC4D5;
561      :    52024801092C1110404800A11C;
562      :    A020736A501BD8B48A8500D7752E;
563      :    D2E503FBFF8B6264379287C9DE36;
564      :    5E7B0C88209119D815ED82C7CD6F;
565      :    8DAF9CB8A849B6BBDC09FDC171CC;
566      :    D94721BFD40D68D3478F5EEA76C7;
567      :    FAEEF36B98FA0278158A2EF89D7C;
568      :    CA9DE3C65BA5E4B49670961DA36D;
569      :    4216D8219900C61C84EA0327BC0D;
570      :    2D84C2A9032F17998C4DCC009CA;
571      :    8A808C6AD419933AC2F8462898DB;
572      :    2DC00118843491292085909209FB;
573      :    C4D630A186315DBB9BAC20B11D88;
574      :    D6F1EF092500C807270CD40C8D00;
575      :    DC03524985BB4B0143B469798C30;
576      :    624A41B8CE4B72E12A7225ADAC9D;
577      :    A757CBEE6009C0650F6703FF4415;
578      :    CF1F432CD33BC2A0670FF22D5937;
579      :    48D8CA917109A88F704B751C3049;
580      :    49980889F558E60B03B4C1080124;
581      :    CCB2C8D5F4507A3E53B839D82006;
582      :    34510F3F2C8C26E12F0DD725E50D;
583      :    A99A3E3A3CAD2BB27F93F6D6FBCE;
584      :    B7F3756B5F3DD3BDCCCFF6DD69FF;
585      :    D4B7EEF77D7E68AA37B1937FFAF6;
586      :    97AD6E95C34D68FB4F954F50F363;
587      :    10CAB6F8040CBF88A2AF0A12D1CE;
588      :    DAC50A9C5799D1137A353A2995AC;
589      :    2FCB388270B7FE13D40E3E424379;
590      :    8DC0022AC339EFD96C4A5D398FAB;
591      :    A5447AB0CF158E7829E1C27E12D0;
592      :    E2BA639CFBA7C8694D186BA50E04;
593      :    5A1760445F3E4DA9D332D9459730;
594      :    E2D9FAC98B8CCF5193A2BC48BD55;
595      :    52DD88CB8B21AE91951076E0F504;
596      :    FBE5B8C6A95FB97D5FDFFE2FD1C6;
597      :    ED112FEB82B44927293DD43C1C46;
598      :    8D107C0B85B5CA540C188075E71D;
599      :    E4F6CD2D4CF1CD61D42AC0251736;
600      :    82D28E0806866C001A5911F81C40;
601      :    353E1C56E66005A24668515E2080;
602      :    13509FC5F54D18AB7F79EBB6FE93;
603      :    C8CF78FEFDDB0F3E5F2AA46336FD;
604      :    6BFFEABA9ACC4FB8955B9EF2FACC;
605      :    28F749DAAA1C785AB21FB6B47C01;
606      :    CF740C702A104550096D0350048;
607      :    9775C064DB20CD802C92D728AD2C;
608      :    9EE20F6A8BA0A1A50942D2F56D3D;
609      :    40A0081C040FC480825000321191;
610      :    353428B142C5A069A9DDC83E0374;
611      :    6236B02FBF1D464183F7D7C85674;
612      :    B6354AD757EACE44AF282775A5FA;
613      :    349A4C4C5B87D21DAAFE4CC687DB;
614      :    EC7E9DC5130A3565A8DA2C7745C6;
615      :    71E43C33194E2BAAD7C8E700B2A0;
616      :    C8AAAD12796D468A49C276C9C4C1;
617      :    D65A7269F30BEE23297CCCED35A9;
618      :    6949900CE163AE40482D8C49CB6B;
619      :    28F0920C74739F40D42C845001BB;
620      :    CEFC220AC7782D95F447ACD98807;
621      :    E8ED8B91F1FBBA2EB83228197213;
622      :    58FC4B764EC24697A2302F98CEB5;
623      :    E44A9D593C7E435ED2F020EB1CB0;
624      :    3C840386823B874DD5C1352451F9;
625      :    91BCD4810C110491082AC0C1140D;
626      :    1854D440A0003662E6F84E8419F2;
627      :    1F7F43FE0E8824C34797F370F588;
628      :    573F01D76A8FF00A4F64D2ABB3B6;
629      :    FE77C0E53BD990FADFF42367738A;
630      :    40BAB120DE81425C81E2069A412C;
631      :    8E8F016B838A0674FD76962F9D4D;
632      :    93C160831901035287A30E8BA237;
633      :    41183CB850CD1C289A8B2030504C;
634      :    4CA4B00B08128FF300D09432276D;
635      :    C73F7CDB4FE9AABC0639C240FFEE;
636      :    2EDBF9CD5111DE9F2C2FDF5F1D4A;
637      :    463EC3ECC56B5AE5537BEC4EA5E7;
638      :    9E3B637727FC49AA3F7F054DF7BE;
639      :    8D78FF7D17BBCC466C8F7D886707;
640      :    8E9143F02BFBC503817F6159913D;
641      :    F90AF401CA801C04B4524DE6C0;
642      :    B01E05085829A817C822544221;
643      :    B0819A23E9A43E22E4EE6AF00D5C;
644      :    93983CC7397D9B9BB5A96A0A4A53;
645      :    3D1DFC8C1601C91ECD9D8A854656;
646      :    963C3F2AAC3FDE7C7EDAE6DE8F68;
647      :    E9F2EB87CD5A43DA1BB794EF0FB8;
648      :    3B70E83BE9E456F28D604BDAAB35;
649      :    C3CBCE088025945310074861AB9D;
650      :    9C88C146031B410648176908015A;
651      :    C9E63C69F8BDA065735FFD921ADD;
652      :    72747FF53F3408225974A32D91FE;
653      :    D48362F71F8844626388B37E6634;
654      :    E2020B95C109C913794FA1A4E514;
655      :    3133AE16BE0C6C468F6A23B2232A;
656      :    4ACA04393A0E26F8A4EA45D9F878;
657      :    FCFEC32DFFEE6B4BBC25FF69A7BB;
658      :    13A9B66B4FCBAB73E4736E328832;
659      :    A1CCFA6991B120697CD27E1BFB41;
660      :    D09D0CB54F89A814274D73EC532A;
661      :    AC6188FD0867B2E504F55A41AB93;
662      :    FFEFD2EF9F187B69D7C63D2972A2;
663      :    8357E9EC4EC5527E2CC4C20DFB33;
664      :    CE956069A90D72181FEC1FA2C6DD;
665      :    862DBA1A5C58B6CD59A85FC2FD69;
666      :    F42ADF76F71F741FB3BC598BD8C2;
667      :    F037428042F76E9759B1FFAA9D6B;
668      :    7D3542882ACD66082CC1DACF6798;
669      :    47F6E796BFF161D77F5AE7BF78E1;
670      :    F2265976F4DEAF4258E7A7C67EF;
671      :    DB262128414C3C7430561482902;
672      :    ED05295D3711E953A5190B24CD3F;
673      :    D8BC6AB7DDADA496EB7759DE78BE;
674      :    24C0BA7FA55C7977EB0CFE8D1CF3;
675      :    E8189F799A5E336EA2F0759B8E40;
676      :    2EA16BD57DCE688417357B69E537;
677      :    50188D3B22DCA67482A25940FA2B;
678      :    CE11C3A0CAA85DF5DF17666FFA32;
679      :    83A06BEE7A11C014045C3B190CB2;
680      :    19F87F329CF50D77948F5E3BF75B;
681      :    DD91778A99BF1F864D97A14EE0CA;
682      :    77CD7726DCE9DFA94DA9874F2AD3;
683      :    3BB73BEE6BA79B1FD6219EB47E4F;
684      :    5E95EC0AEED725212F72C2FBD6D0;
685      :    C67ED53C6CEDB45F5CF8E8C66F20;
686      :    CD616916647A34E533F454712EB9;
687      :    4F657D6CAFBDF600536FD40D9F30;
688      :    34734C65A083D6C02418927CC591;
689      :    4802AA8800B915C6621A4DA01C2A;
690      :    79A4AEF3A73E77EADB476CD35AF8;
691      :    C5952A0BFE7008C68B4B25DF12FA;
692      :    A111620C813C45F25337910F0984;
693      :    B791F9D37FCE3E8281F17B1003F2;
694      :    5BBF3D90E0549EE94E846989026F;
695      :    3C449E48BA1B9D0EDAD827931AE1;
696      :    7B4D76D59FB9FFFAFBB7BF8E7BF7;
697      :    77F94F864A70D90F46AF7BF65AC0;
698      :    7F5CBE6BE533DBBD5E8BE6D68B38;
699      :    C6AE80FA5DC8F2844842717D7535;
700      :    100FFA684A94547282D000869B24;
701      :    10626E081504446AACE041321CF8;
702      :    DE2303794B02D2C520305D51E630;
703      :    D2190B797AA682D3B737E35BED38;
704      :    9C870AB8C7882244A5401B5C8220;
705      :    4EF43AB9DB1EAE20FDD8DF9385F5;
706      :    3CEF8D516C4BEAD5999E58F19369;
707      :    80EABDAACEE5BFFE28A8CC92F94B;
708      :    44FA957F389A929A0FDC254F7602;
709      :    99BB31964B57E2B28577670A336B;
710      :    6FBB759ED03DEEAD3E4F7619658B;
711      :    39CDCA99686C9BB824F5CC6BB89F;
712      :    8CD9C8191101FB386CCCEC808D29;
713      :    2DCEC45A6608B83B33206CD3A18A;
714      :    16AFA9FFFD66773EC2F7F676BB1E;
715      :    56AB16EB9CADBBEB04EB03582276;
716      :    AE5104E0EE005990DEC18408939;
717      :    AF0FAB43DB2C546D29D71DD35F1D;
718      :    DEF9C3C7C7A9629C0FA55525F70E;
719      :    D09762E71B6C508D77B3562F7E12;
720      :    A11B6E2B0D067670A95054B62DC1;
721      :    4C51FAE9DEDADF2611F825D3B5B2;
722      :    B531472F7E95E8D2873923351762;
723      :    96B3FE167140F77AEFA97DBE7E82;
724      :    F787EB07C5E799ABA1EF9F32C8A;
725      :    5B6A6F82AEAE7BFF93C06FDB1A94;
726      :    7FEB5284C2396B4D1202DDA56CA0;
727      :    99BF006B43A58704A1744074782F;
728      :    8D5240078311E4198E0C0335148;
729      :    BFF708A4E73C562576CFB433CEA1;
730      :    41ACE90E24CE52AB77E8988F7EA7;
731      :    A26D98B92169FFB52C437280FDA5;
732      :    F61569E34FD6E2658707172DC363;
733      :    97BE5FB763FD76960FAB5505636A;
734      :    79CFBCCEAAB2D7257D58ADF50D39;
735      :    B71E57994FC2ED47383DC36587F8;
736      :    350EE0F58B7D777E1F7CD9D03E8;
737      :    E5235B15D232D909045EE4C2F684;
738      :    B74C0A48129540529DAE8790805;
739      :    421541860221D0030B05E1400424;
740      :    406C4660656E0C40714F4588C1C;
741      :    FD877EE2F1B3D997FC2CD6C2C8C8;
742      :    F1CC15E81A6AB94E74ACC944C18B;
743      :    9B641439413FA7EA222F9DDE7801;
744      :    E675473FBECAFEFE9FBBBF5FF670;
745      :    9409CA7E41D3C8C48A680655A539;
746      :    D41A59BE69DD6EF6FE486B9DEE53;
747      :    BDC0EA12D497311B3BB528DEB8DB;
748      :    FB1ECA4C99E32ED3BEC8FE5EB7DF;
749      :    E88843CDC5DEF74EBB13254B3496;
750      :    C9988BD5838A670066C3A6C19880;
751      :    6311D188579884C62547834DBDDD;
752      :    608883DC95DE322E130230C5BAD2;
753      :    50EE9F729A20363D845064903F06;
754      :    93A02A82C9443CF40F42239A1A12;
755      :    FD7D9E59BF79BE21EA1DE3B6C856;
756      :    5719F00493386971F01E68246D2C;
757      :    779576D27EB03448E5C80A3AE0A;
758      :    417283F912692565325128106834;
759      :    90B6B7FB9FD83DAEB7F6DE927EF5;
760      :    9C9359D674F5E9A5AD1643EAAC0D;
761      :    706C8C2CB6259E59FC88CCB6AB48;
762      :    E6DE55AE7F39EE236F18F35F27B7;
763      :    3EE7F74C48BAE53F8FFEA7D5B896;
764      :    AE6DD41B0825DDFBCDCAD6A38F89;
765      :    E33782D67FDAA88F56D833E7FCF6;
766      :    93A4FF534CC6E7F7F230DDF2F77E;
767      :    B894AC268585E1D5FA14D812EBC9;
768      :    145B7D2BC8899C1A91AC02078321;
769      :    5C40CED04143EFB070248C43DA5C;
770      :    796F3D3666ADACB6424A50BCF7FE;
771      :    C4E842198DFE51B81B639D4149FD;
772      :    CE1103843DBFF8D60F3C102DA11E;
773      :    99DB7D86BB2DF599B69FC880EB4B;
774      :    84B1BE419205927874E60998C8CC;
775      :    DEB9F7136FCA59E0D5DE02699024;
776      :    102DA91066C9317A9384F285B305;
777      :    ECCAD80890381F35305F55991841;
778      :    8D2E61BC4F027BBE8137AC7FF73F;
779      :    B80DBC9E4AADB6D88C811696CFEB;
780      :    54909281D13819BBDCA42CE33051;
781      :    AED11E865680CF4AA9B98728995A;
782      :    F3DC9F696DAE16F914CECEC8AED7;
783      :    57A1BA7B5A54F5BAEBF72B3277FE;
784      :    3CB8BC30E0037EB89E882E2910FB;
785      :    5093B278BCBE5F6A73D2667A3775;
786      :    3F0ED104A020DF9D58D9A3E52D0A;
787      :    9F6F318CA44C239B5CBC0E4823EF;
788      :    F9DC584A9548431870EFF01342D3;
789      :    D51A4F4543B5E282A571956CA5BC;
790      :    E5D54DCC8B22041EAAA78B7C7E12;
791      :    FCB1810D05316C94CA353C757439;
792      :    BCA831D2C0E034846A641D5A44F3;
793      :    254D3C220515A235E890F5DA0A48;
794      :    48D42D86C2970D2D698CC1DA0410;
795      :    751725FFCFB67F259FE76D4EF07E;
796      :    302E87C7E4D7CE5C72D8EBD53B87;
797      :    F120F287C1BA05625A673B3918BC;
798      :    A92351BDA13E60A19A7F611B1F86;
799      :    3C38DE17A26590D3081361F7CE18;
800      :    68AD155CC06A3C1E932461B86D3E;
801      :    C63DA29FFD594A60A318A3ECE633;
802      :    723373CE5BBB5EBCDF8B935E7273;
803      :    E63B43D65E7EEAAF039E2F7F630E;
804      :    7D08340C66D98CDB7CEB1981092C;
805      :    7D0F3D50801D9D14F1184FC92A04;
806      :    818B933AE10297DAF0836CD01859;
807      :    16B9624B6E25C981673A43099580;
808      :    E59FB90C2004DE15401035752949;
809      :    ABC1FB0B10BCDB99FE8FAF49C007;
810      :    A9A28FC4BD2E239D8758ADFA1F97;
811      :    AE91186E7B9D795804D33F72DE46;
812      :    BA8192FF5FDE6AC2E6F5ADEA94B7;
813      :    1C80C56BC107440B50A914D08C94;
814      :    88211B40456BB63900000D23011C;
815      :    C27E3BC9137F3CFA979BDD7BF58E;
816      :    4C9C0080203D24308040C41853D;
817      :    AE43114800964C0C80840201890C;
818      :    87B75BAFAD7485EC1CD79242A544;
819      :    C94DD80C5109187100B7961612B;
820      :    DE3FA9CB0B2A76150C13DA2D6325;
821      :    99A5ABFFB919AECD1A1BB435D10F;
822      :    861169D7FDC248841777C365E237;
823      :    8A92417E5D8CCEEEB7BE3F5824BE;
824      :    E91E3370407E0ED0C500C3860DD;
825      :    D0050B317306A3B026744760C3FC;
826      :    F9E60CFCB071B7E8FAD09C1853B6;
827      :    A8CB9E39ED07AB3BBACE4C4213DD;
828      :    4421E2227407F08F05A120D50304;
829      :    E00606F438142810D4605740029;
830      :    6401C205811A4047020543052D14;
831      :    E4424A5CB10066194C4FE4CA483B;
832      :    89EEBCBBF95DA91271BAE85AD057;
833      :    71A43E5BE67C398A5706BCC0D2E4;
834      :    863FE5573F894A900D3ED56C85EF;
835      :    A5A51ED2B4089C94EECEC897F953;
836      :    E1EB3D7FFB7316FFC6E866C6FB6E;
837      :    427621618405400C38304CF00110;
838      :    10AB694B75C4D4D284204B02FF69;
839      :    519178CCD61A41947B648C2F7D18;
840      :    79F304928D8DD96DFF6BD78710E6;
841      :    F31828520406D4811D08660A127C;
842      :    5FB107E3A7A8F9ADFBBE7D2BD0B2;
843      :    896F387C2BAD1251147845F1053;
844      :    1F254EB75925C81DC4BCC654E99E;
845      :    29D01900E2E8BE0AB2E32B1E5B97;
846      :    F00CF69F377E7760BA7418C3FF7E;
847      :    E3376FD1F3CC6584FB59816EBAA7;
848      :    702DAC7438C960949610103A7215;
849      :    721E0020B977886F115A85B01682;
850      :    3F55F00F91F53E76B37899A008CF;
851      :    BB990F9E8C3A5FEF418986708DBB;
852      :    98D4B688D5049E1CD0A08C0048C3;
853      :    AAD8084B7590BD38A8F808C80075;
854      :    9C556CD73F97B9A3107E1D771EB7;
855      :    860DB8776FF1B911811593BEA57D;
856      :    A2478DA4CBF4955EF8A88D279C68;
857      :    525EB86EB085B3F0E620E9E424B9;
858      :    F396ACB77DEE2ABE7BDCD4DFD2D6;
859      :    37F8FC392AB8AB017E6B0EA79C9B;
860      :    B748DCA714169D5C5888F4C53EF5;
861      :    6CEE961EB431BBD55C8B70E67959;
862      :    CBEB48284D2710B2293CC847A82;
863      :    C438505356A379CA2EF83B8CC0B7;
864      :    5F5C72A7E6EFC92B2DF5C28B1630;
865      :    AFF498A7AB22FCC1EB0DF1CD4C15;
866      :    E73654E749B28B414E35A10736D6;
867      :    BA2FDE833D82634BB3D0D595F757;
868      :    4A3E4CCD7FC723D61AE2F17E69F9;
869      :    9A0274FA57CA64F35821CFF2FAA2;
870      :    6BBF8B33C7351831E5379DD24E09;
871      :    AD6B0BEE1931DD15A947185DC50C;
872      :    E978C0C5B56A50172E6DE1BDC540;
873      :    55B3A3E37E02545401C84F8A1C85;
874      :    B4ABA8122EE5C0D894D01353E209;
875      :    5EE9CE34961A770E5F5C235FDE99;
876      :    33B2A01A5E1C35F3514CF0134E80;
877      :    3746483C266DDBFBF8C26EA78EAF;
878      :    279BC528FAA24F65071502BC2CAD;
879      :    65E55FA1E43AE9AFD0B7E42F9016;
880      :    7F38AE17C6FFEBAF4CFCB07D59B3;
881      :    31DC3C28008F1D0BF0AC5C92C0D8;
882      :    C5B9A0C7B8987C400F8C0718638;
883      :    6099A25A9A4B901890C60CD98974;
884      :    E7F2E2F5FFFA69BE13B7ABF9FEF4;
885      :    113B2AC85AC0ECD18CD00A3CB74B;
886      :    ACCB161519937D71F9DA08690562;
887      :    62F093D5343BCD4FD5A7F74975D3;
888      :    A02DBC042634DB7ABC1844898D0A;
889      :    50BAAB2DCC1B131CA28B40BC6C2E;
890      :    D8C1AA11D40841F906940E21AB55;
891      :    F750338EF9BD73F47F39B37D6DCA;
892      :    7F158F0623CB4C275789E3E78606;
893      :    187F81B24C6A8CC288D834C0D2;
894      :    33323F901CFAADFED2EA64767BC3;
895      :    A1D0EA6D4ECAE76A9E605CF6BED0;
896      :    F7143A049C98144386D48EDEB2F;
897      :    262B98282C231A1084ED06810D2B;
898      :    5EDBA9288036D115F8000CB10A9A;
899      :    5C9A3AC9402129F2607EFA40CB7;
900      :    16376A730FC6EED2F97081224379;
901      :    EAD6C1DDC0F44E04B22CC385AD2F;
902      :    B2FAA9362BE19A503EB84358B319;
903      :    D48E8FF6B536DA9E7EE39E4EE9BF;
904      :    B7E7D1BF5BFFFFD2D7B9AFDBAD72;
905      :    3D5F7D5E0F67BDB8DFCAD2CECDEF;
906      :    C096877909B7E7BC13BB7B667725;
907      :    75F9044D8F37FBE5E51A3FA14793;
908      :    1D1555C38521C946A012A1398C0E;
909      :    A3903E0329CC20AB5F94556E87CC;
910      :    D1540D553341E50BF3D1D9E61E85;
911      :    F7759E43DDE6A1A1BD56DF7F82C4;
912      :    4A96E2117BC2B2A08404575AD04C;
913      :    E61DC2D34B43A4024B2F03EEB02C;
914      :    CE2BC44BA502A82E332CD4C018AA;
915      :    CD43701235381F22FFE5D40E5843;
916      :    C0CB9EBE566DFF4BBE2F7F758767;
917      :    FECEBE7BF9267E72FA8AEEDAF252;
918      :    C086284404D0914C3ADAE050B28E;
919      :    FC1D22C247D5DECA21650221132C;
920      :    BDD89A6B20B3C771EE88BE83B1DC;
921      :    367D9C9D3E7BCB4D550ED2ACA648;
922      :    BCD86A13ACDF29B392EAC27B8754;
923      :    D1B6312A315CE9E916C6D491E305;
924      :    97386E564FC4CDF06DF8D3E897AC;
925      :    B66E0B8C98659B3124906CB55A22;
926      :    917E7D55E5A61210370C1186428;
927      :    31CFF51C7771E7FF5FEDFED773CC;
928      :    502EBE19646997E17959F1423178;
929      :    125BD308800156D16960040A09E8;
930      :    E577E4C0E180CDD9E538D3252415;
931      :    C45743826F9A50B4073E5D25F48D;
932      :    E79F55FD27FA68DA4516E66ED41F;
933      :    719B8D71E79235E9FA42C5DBB1B8;
934      :    F1176EE26FFB3D944F1DD7C2ECB0;
935      :    51A89C3869879572F6A10E98E030;
936      :    72B6BE75FA4E0D2097FC397BB476;
937      :    B1B37E22B787E7FA8F111BF861B1;
938      :    31B99C28227D077B716EF1D24991;
939      :    C0A741D84E0B8E43193CC345F5BD;
940      :    D1024A499DCF29F887FA43BAA055;
941      :    F6FF2FDF7F3D4D5DF67EFB747656;
942      :    502138209385561AEC10AB028101;
943      :    BD9AE0A1A22E4D97988737EF7483;
944      :    FD752AD26BF3EDA9D110DB718083;
945      :    A63B6BD496CB4EF4A83419B5CE6E;
946      :    C58A3B6E88E7626234A74BE9CD5;
947      :    7F50F9BFB3A7FAE5EE497B35860B;
948      :    51C0BC164575BFBAB6EF4BF977F6;
949      :    8AC003368D7BB145F358ECD0BF88;
950      :    ACE397D1A564F967EBEB5BF2E0DB;
951      :    26C802A5AC465888EB093219549;
952      :    5B75544A1D9EEB881EB15E703231;
953      :    42A782F22A852B2015065014F356;
954      :    6E9B7101E2185574A4C8700BDD48;
955      :    C3CBB0E4B6D4986AF5025E13986D;
956      :    1693F04173804418A4D656BBC261;
957      :    19B4382C92F5AFB9F49504029F67;
958      :    ADBB3D4BDC3F4D33F95A6DDAD109;
959      :    50B68D906CC2F98F75FDB3D95276;
960      :    7749FDC824211FAB5094D0856A30;
961      :    C5C195C9C52388095FA500480C4E;
962      :    D8A2F587D1499D9F05BD274D4217;
963      :    84684459A35FEDB6E40641AB5475;
964      :    1D2AEE3483533AFA12BE0D1A1FC0;
965      :    D8F0F23CC252F3B1E245FA439090;
966      :    75955FC55471199F37DFF73CAFB2;
967      :    17A3BF340E75A9BF3DFDEF77EB09;
968      :    664F4352B11DFB2785DE2F5D76EA;
969      :    143172674A8F4DAE12B09166367A;
970      :    7BC9348DA43C3B1AD4A8D2BB9DA3;
971      :    14C99C6C063B9D18A2E134D102C3;
972      :    F3FC0278FCDF3DBB97D6FFDA7BF3;
973      :    BA626A9911CC62C73E5CEC27D275;
974      :    E2D40004C556C430867102D9728;
975      :    EF77C0CD8239CC41C5CDFB6D2C5D;
976      :    276C418175386FC9D0AE84C9A0BB;
977      :    E7CC53E1ED96C102D134C02B0876;
978      :    192F2FA6EED536CB87E809D4EEA3;
979      :    60AA9E68F098362BE7C4FCD45AE5;
980      :    6FEC3E4896931D3EC35E04931CF0;
981      :    26E886EE0235DE8FCA6F5201D1BC;
982      :    6FCF1A4331318E51840DD651E59E;
983      :    CF47428123AA9705A556FB0CF435;
984      :    7E195279588760798CA01E6FD651;
985      :    EE87EA7D7FBBC2F17D564679F7DD;
986      :    CE3663874AEAC1DB8BF29F2DA769;
987      :    38DC3E1A004647FBC0C24E9812E9;
988      :    5FC9F2CF167CC9F9F913BB623EC6;
989      :    95C9B82074099E618084DEC05069;
990      :    BCCC9409B00D9F1160CCAC830903;
991      :    30C8F0185097BF0AC2F024589AB7;
992      :    7DDDFA3173D35BB8952702B192B7;
993      :    22BA3C7BA9201E1CCFF85891956D;
994      :    EFFE9C7B4FE31A3934FCB6605FBB;
995      :    EBDCE3730D521039337891CB7DBF;
996      :    89A0C6C90BB202A808D59539244D;
997      :    EF6F77EED0FC49D6045302FFE476;
998      :    86F9EB1E4FFF7AF68F3F5B33C7F4;
999      :    D67F5F871BE7EAC265CDF33FDF8B;
1000      :    AF7EFCCEBB31E8BDFB5FA8AD1B4D;
1001      :    2FC97B060231C4C76E1799272748;
1002      :    19A71C327EC665F1B74038D2FAF7;
1003      :    423602753F8B2BCB91F2D55CB2D3;
1004      :    C1249FD556D4262E51E2B9167276;
1005      :    430AC56E6020BE500B061DE5994D;
1006      :    138BC147840403312A04570C414F;
1007      :    29EAD68D00259714A086C7918540;
1008      :    9D576EC1CB9E4D719C542460BA31;
1009      :    149C2C51BC859C79928ED0D49ADB;
1010      :    5C1DBB56C5CE112ED5720DE292F2;
1011      :    D12FE15964E1E08747C2264B96AF;
1012      :    AEE9905422E7CFA0890042BDB661;
1013      :    D7D98185F489D8040F5C66AC0B33;
1014      :    B7BDDA067D69CF884409EBEDCC43;
1015      :    716F3E156039975154CDEEC3AAEB;
1016      :    9E7AA9AD4F4BDFBFCE1EC140313;

1017      :    EA8FF2511DEE4C1B2BD4BB777C98;
1018      :    CFEC36BFCEBC3D77393AE837C7BC;
1019      :    A38285A9E76829C1CC904B3C000C;
1020      :    B67ADCAB54A86F3E7740742ADEC9;
1021      :    CCE8851CE74C822D5C696CCA60EF;
1022      :    7F424FC650B62EA45F6A81FE4FFB;
1023      :    6874AB46D38D52624B4F2588D157;
1024      :    EC8DA3594AD546C86210EBAFBF90;
1025      :    A494ADEE0694F5DB6215EF8DE370;
1026      :    F3145B025822CA6327A233258664;
1027      :    835743E2CABAB136F20EC4085F1;
1028      :    7197DF92C535903D511EA6908E0;
1029      :    AFFAEECE12B2D6837931082AFFC3;
1030      :    79F9704692A99AC2D84A091646AE;
1031      :    60F0658553399EC8001F01857BBE;
1032      :    A0C38B7000B5EB022AD8B17F0840;
1033      :    872D29528008CD3737F4D5BEAC1C;
1034      :    330EAB3203E87A2532F289CA9738;
1035      :    A3074360C136E90B8454BE71F9D2;
1036      :    E2D20728C455E80311A68FE9B8E4;
1037      :    87E8236312011B23BBB4ABE2B910;
1038      :    82C11F934AB6A6114D05721DC881;
1039      :    90D1FF8B08AEA095FFCBE697C8E9;
1040      :    403448836FAD8191643928A055EA;
1041      :    133EBC8AFED8A3ACB44804804CC7;
1042      :    8E5F5DFBC31069A49482426B014C;
1043      :    D77D4DF4E3C98BF5C1F25F2E147D;
1044      :    661B9D6BB6F2A119367F7D017E72;
1045      :    85E8FDF3E7618BBFE63D5EDE9870;
1046      :    6FE703595407022AD2CC894EE111;
1047      :    DFB7EF95316D75E7F99B643F30AC;
1048      :    429D5E092E6FCD7792B034E120DD;
1049      :    AC88B2CE783293171F2D03D1CDA;
1050      :    42AB347FDDAC2508C81DB45E28C1;
1051      :    7EE9D6C6D4F82A6D9DCA29BCEEA3;
1052      :    D7FC7E8FB9931EFF5D3B794F14EA;
1053      :    CEDDFC9E5849824D5AEB13257D6F;
1054      :    ACADECE26C80115C7C884BAC5CE3;
1055      :    E82D9EB94675AF999BAA6BCF287B;
1056      :    6DA741C590831FBBD164835BFF13;
1057      :    6EF1C945DEAA1F9E4CC79DCCFE1B;
1058      :    4C60F501191292FA0E5D6908CD07;
1059      :    4E8BE0EA9A090B611ADDA56483D5;
1060      :    9F6666709305A94B0F59744E9B56;
1061      :    D927B7589B88084909DC1F748B57;
1062      :    9FDA72FD0FA9106B2F621C7BF119;
1063      :    95C2D03F160911BE6E590C33726E;
1064      :    8DB76B3C360D8A2FD956C47A842E;
1065      :    E70B2F6B144F4EB21DDE24CE33B4;
1066      :    78938F9556D6260B7DB9E6E10DB;
1067      :    7FB50FBA4656A263781B4EED394;
1068      :    191C8E54089A922D5438D191C33A;
1069      :    D854D78460B4D05DC2B27211D528;
1070      :    605A8F962C80A51C447B79A1DDA2;
1071      :    BD4F91F786B7823E3B8D45165FC;
1072      :    2B820AF8EB0BD0FE7E14EB8C74C;
1073      :    8F977575A7585927D1364A5E027C;
1074      :    33EF2377476AECF52BD23F10D48D;
1075      :    6788AFE6651BE6D3D97929CE98D2;
1076      :    579801DC51581A6E852D19FE903A;
1077      :    781706050FB276042846868CDF33;
1078      :    12184F837FD536BE6E3E611F2EBC;
1079      :    366AE8494E777EC2460AE12EFFB3;
1080      :    9587D08CF4DA3428BFDA5B5206E1;
1081      :    A75CF88EF6BADFAB7447BE82F7E7;
1082      :    61119ACB5A96355648E50F81D3F2;
1083      :    439F61FC87EA5E2C13411BF89E91;
1084      :    1D39B15E88B2765D7FE83BA8D39D;
1085      :    7815FDCA45670F927130CB407EA;
1086      :    DD1CAEA616CC330DC4CE47C0B727;
1087      :    ACB4C09E1E091788444709807707;
1088      :    108008552F37C5982030F2C71DBF;
1089      :    80335C937AA88448298CD824619F;
1090      :    28A8E64740AC27046C46408ED5C6;
1091      :    7C408CC3C3909115D45440DEC90C;
1092      :    372AC0F992F192A49DC06EF0DE94;
1093      :    627ADFD7E45EE134E4EC92109254;
1094      :    C0FC87F8E64619F7DDBD2BDFDC7B;
1095      :    46493F055A3841E964A2D3E03389;
1096      :    22B8150B28D41B9C7DA2A9017649;
1097      :    10D5787CAAF9B38E3D481AD4E743;
1098      :    26E147720F2D60F40D49EFAE5DA3;
1099      :    67008368E1B560E150D4170EAAA0;
1100      :    FA303BE85155F3E2D31D27E0BA57;
1101      :    25974D9078E2BE7AF86AC499B92A;
1102      :    C0108B977732B032C23785957A34;
1103      :    B888127AFE99BDB02CE40D49BE;
1104      :    E75956F87F7068F08FB0E63588E8;
1105      :    FE16BF612B5378C3AD9AEB110EFC;
1106      :    465E06765652ED33E1FAFF72EFEC;
1107      :    657C7AA6F68596EEBC494C9C7C44;
1108      :    E56C7858FD4756AEBC25BDEC794B;
1109      :    EFEA58FBF7074B12A2E19E7EFB5F;
1110      :    1C9DBD5B78F53917E3EEA317B5EC;
1111      :    7A911F5978A1677F16FE782B29DD;
1112      :    439418116962EA2367F565A5BBC0;
1113      :    A6AA41C79AFA8AFD9A45ED04A291;
1114      :    C6E856D79A9746AA4CD7A0B5F920;
1115      :    E4700686447862CA4C536A35C9A2;
1116      :    D7AF886088D5E3C8EBF3E570FBA1;
1117      :    53AF45CFDFFFF6FBDB54F534BB61;
1118      :    55EA27313F375276EFDCA6B8BB3B;
1119      :    7AE7FB74D4AA3FE5D5FA5FB5613F;
1120      :    58D0AC240A60249166FF493828B7;
1121      :    18F00E2A02A095416620C410E2AB;
1122      :    26C51A338CC55E174394FC7A3A28;
1123      :    E417EBB4A249583649FF9FFC491D;
1124      :    D885BD3EB60A8B158BDA1B3F052C;
1125      :    28FCEE032B9BB5D4EC1B6980F476;
1126      :    34C02E45319CF594461AF0BA39BB;
1127      :    91BB0F5FE40BA9071B0152FDA787;
1128      :    A7874968776126AB89E2337B1C7C;
1129      :    B3362E35F56522E1F93AEFE97C97;
1130      :    C73797B5EF27E7AFFF5B17BFCC88;
1131      :    B26B378B5DA73EF21F1DE350EFE3;
1132      :    A661975BEA6E27739DC7FA69E68E;
1133      :    D3B6B5DE2079C967C9D0DA4A00F8;
1134      :    2B2CF7B226EED01A7BC7E1145A9;
1135      :    4158AA1604663901D7DF49A3D2C1;
1136      :    41549DBF80AE00E9C63945B52648;
1137      :    2A287394F6911B9EDB761478C4D4;
1138      :    575DB8AE26387CB6027393B9F052;
1139      :    213DC2FDC4084AE352E3965655E8;
1140      :    B50172215D54669E4B0D12A6BED3;
1141      :    168BB2197EF5969E7AA529843F27;
1142      :    A46952DF7FF7F6CA6D27BB0CFFC3;
1143      :    56C044A7C8D144AA77CDFEDF67A0;
1144      :    570966E6D8F30A2A5F47A8CEEBA0;
1145      :    4709C5D8D39F486A5D5DA5E7813A;
1146      :    4CB88D0AAA8E91AD151A5113077E;
1147      :    58DCB19AA758090DF7481390121A;
1148      :    9CC630280400D1D167B8D600207B;
1149      :    F733481CBC581A76437A9F7EB81D;
1150      :    D327F02E3CBF1E76CB6ABD3DE4FF;
1151      :    3809384C357970AC0B43905F679F;
1152      :    9747401AA32048A03F81127D4CD6;
1153      :    8277603C8CF26A405BE2236AACD5;
1154      :    DF08B10EA6FB5944CD384B741E49;
1155      :    B869655359854FBC19DDB6FBABDC;
1156      :    BF2DAFF3923D7EB289D8A29AC98D;
1157      :    E0CE2129400D01C69B14A15BCD41;
1158      :    CA74868BE2E28BCBA7D8372F8046;
1159      :    772C93E8A6B7A54339662DC641A5;
1160      :    726C2221D28047305B0DA0765B6A;
1161      :    F7C7E7BEBF0D3AE39DDABFECDED3;
1162      :    356713DCFB5A5E2F49F5367CEA6A;
1163      :    2DA862E4D529CE7188701E7FF502;
1164      :    B6E33DD318F760E2451D25E6A3AE;
1165      :    4EE6D66339D24CA65B0520FB7BA1;
1166      :    EBDFB253201799E83EDD2127E9A0;
1167      :    C0BB8DF38EFD51C63B2C38B71DC;
1168      :    E8392E8D6472AFBDA4A2029D6232;
1169      :    88A099B39E11A5071A32989823A2;
1170      :    E76F12C88E9D8F5AFA35F22F445;
1171      :    9BD57C2A0462CC31E63B3B11E4A6;
1172      :    85BBE1BEA4400906BDB2DA7F047F;
1173      :    A73931EB7C214F983174367F6ED6;
1174      :    85AF1E7600592DA2B9E1762E4BDE;
1175      :    A2FC426871550EC29330200FFA91;
1176      :    4DC18699FB9757EE1075698CAF53;
1177      :    6A0C86D95FC9CFE34418FCEDC240;
1178      :    FF7E1FADB7F7EFEF9D6F832FFBA3;
1179      :    205136AA6A336D8877A4AACB1752;
1180      :    2318787909245B89A7D5224B90E4;
1181      :    653968F15C77328E8F0D2ACEEA87;
1182      :    CDF914CBF3B2E50E5358091C16D3;
1183      :    633CD44F5A7392BBF67DE1193E37;
1184      :    81989007589E7D822137EA018884;
1185      :    D5BCFDFAFC4D5836F1D86960807C;
1186      :    9B0F75FC13626977B3DAB17A05FC;
1187      :    979B5DBAB0005A3413E0CF7E017E;
1188      :    38350490EB55E584200C00E502AD;
1189      :    3AC9EF0A0684B1CD95A16AA21381;
1190      :    4AF97A742BA3B2C35CE4C9C7FCB3;
1191      :    6824CC4D1AE783EFC84FF10EBB33;
1192      :    C020854558D684FB5064E11DABA2;
1193      :    50D881164883B7F24843A1018C22;
1194      :    DFCF6FF8A3CD38558D3FEDF2B03C;
1195      :    94ED1F7835803998033A4E763C6C;
1196      :    DDEF250EB68A58090FDB1F7D266D;
1197      :    95F15DAB6A3629369430F8B701F8;
1198      :    AA76391486FE2125F290B27757DD;
1199      :    7D83C9FAE6A1784E60B0B96C7CB;
1200      :    789CEC8F2BE987ECBEF04980B4CD;
1201      :    7500C387A4F642BF924421487D08;
1202      :    67480B7DA7E6B484FAE7BF1AFC20;
1203      :    A6A7F060E1493AD18BEA423C9659;
1204      :    18940CE2089AD0DB087841E1A563;
1205      :    2132A7CBAE47370A5121E80232AC;
1206      :    EB433274157F7C039DC5BA6ECC44;
1207      :    FE27727057BF6E629F02AC6EEFDA;
1208      :    638663E0541E60629972A26F6888;
1209      :    1A62988A104052F0600991536EE7;
1210      :    1AC09CAE20BE4DDD649DC393C727;
1211      :    446781E600ECA8CDBC1FCB9140AF;
1212      :    FB0423D2B94C3022F19D427BD45A;
1213      :    824150887D4752122372806744B3;
1214      :    238F490920737E1E83244AEE4290;
1215      :    BD222C7875446A2493682B6F52DD;
1216      :    97A918B8D5156AC293F46268D5D3;
1217      :    F7B9A0E1F170E528A3B04E7CB458;
1218      :    66400D415904E49B1945E34DABA2;
1219      :    11000A8DAB0AECA580161071900;
1220      :    6478080878B6D7CE308F25A64B80;
1221      :    8D14FF589B49702BACFBCFBA9875;
1222      :    D6575C9722403919C5F19E56160C;
1223      :    DFF239D6BF0885586336DE2F271D;
1224      :    2B153807188A5194FEFD30DF2F17;
1225      :    A8B3BA1B586B9606B84CD08B88DF;
1226      :    2C79DF826AA6055C34721806C791;
1227      :    26BB50F3D9274E1A4501289DD9E2;
1228      :    FFB7E7C0985E437A31D99E31C2F2;
1229      :    CAAEEB76237D2B86BF0FFDDB917D;
1230      :    55FAECAB6EE3B1FAF4E9F8A477EB;
1231      :    8B795829E3B8892DB0B2D771485A;
1232      :    95FF3138B5CAFB2793895B7AD447;
1233      :    AD6F61BCF70052E099698CFDFC4F;
1234      :    3F6B70B4DF3B7EC10A8FB67CF8CA;
1235      :    BE6962FFD7534E93BB91BEEEFEDB;
1236      :    A47E17575052909F002F794D7E73;
1237      :    6B465151C846C3FFC851AEEBE908;
1238      :    55420939B06CB97688C766B0E860;
1239      :    FCE9E4DBFAF7FBFA2FCEE91C6F53;
1240      :    5EA8DF7A1ADB65DA243258C7A5D1;
1241      :    602347791524452410114A3B0B31;
1242      :    5864CCD72BD3B0CFC41F21BBB657;
1243      :    8810CCBB6083CBDA2FE945F51938;
1244      :    B9BBBEF66547A7E6BB2DEEFF096F;
1245      :    66D34B9FDE035AB11427E97BFD9;
1246      :    E0C163FD5510C229D6288C507F5;
1247      :    DFAF217D9F8B2EB6CBCA7E7F7CED;
1248      :    4EFDEFEDD2E14BE9415148D9E400;
1249      :    680A135488AB5A2AD855AD4891A3;
1250      :    81AF8364130A426A1A81947EA862;
1251      :    FC0E012FAF50A4E9716B69B13FE4;
1252      :    D08EA935A45EB7F068674DA115B7;
1253      :    5D891735BF411EE79ECFF1DE9059;
1254      :    EDEFF5E4BB6FB27CDA7FDD4C2C2F;
1255      :    49F563003AFEB22186EF8483B73B;
1256      :    79310F160BAEDFE14E69C5CD26AA;
1257      :    9CB6275410E97C724AD8D531ECAC;
1258      :    B1133B68A42BE9102342153300A8;
1259      :    97B0227061793E75A93AB17C241D;
1260      :    85294993E0F1FCD5DDBDE431675F;
1261      :    8073690129BF68166331E22709DE;
1262      :    19B4B3666F2FA55B3AA7E3D46D8;
1263      :    EFEE2D7BD52DC2F989DCFF7A392D;
1264      :    CFC743D89249EBE5C1EA5776D86C;
1265      :    D60E6521EB09AF66D9B80BBAD86D;
1266      :    34149130C1EBB6D008AEDDBEF055;
1267      :    B040BFD57AB302BAAC25A4CEFFD2;
1268      :    222094D34937429A14242C81EB82;
1269      :    ED7A58AF70F34DEA712F684D6D72;
1270      :    7FF9D53367EFFFA83F084AE854AF;
1271      :    6F7215FDD9ABC9EAB26BC1EB7C75;
1272      :    E479E6DD197FD45B58FDF34BBE7D;
1273      :    BE17836DB7E97D73C952AA6BEEB4;
1274      :    38C4556E937E2867DAD9B8DAADF2;
1275      :    BFBF5D9B75A959F801315C5D7CB5;
1276      :    B5E2529AA56B29B1B77A94B84660;
1277      :    856C00B69AF6EDE0FECF917867EE;
1278      :    8009286A78163988308490C70D72;
1279      :    BE3359A841366F18162452E744C9;
1280      :    3660B8F85771618837D02AEAFA91;
1281      :    48598D987797FFDA5D370285BF72;
1282      :    7D31ACC779FB659B462DE09D6FCA;
1283      :    AA10CD4659EF9F100C276681A184;
1284      :    AD1FAD18D41B7203C4D9A559B04D;
1285      :    C6D91FCCE727FF90B45FDFFF36CE;
1286      :    8447DFBBDC71E831E3E09A6E1CFC;
1287      :    EC2D41D2EA8A75CCD44F63D92E6F;
1288      :    7157EB7E797CBDF28FB573C93E4B;
1289      :    BFAE8BE4B7DD128B8E80575AEE43;
1290      :    8DF141BCD74D5A340B32FC727429;
1291      :    97AAA6B8D25CFAF18F6A3535FD36;
1292      :    B7830731D20B286EB99EB731A923;
1293      :    AAE972727977DA943B10A863FEC8;
1294      :    C6EA3273C8F7622131F0FE26CBD8;
1295      :    2AB21BFAF3E74B22193C62700B30;
1296      :    FAF2D96D6AEFAD3527D1EEFB205D;
1297      :    9653DEFE21F7E91D85B7F0B138CD;
1298      :    1B7A4A3260FCF817B330EA6927D8;
1299      :    BEFD4DF1570A6FEAB9C9150F24F5;
1300      :    8FEF59A6AD496EA08B0F3E5B4475;
1301      :    960E4D24D2A99EE6C9E1172B252D;
1302      :    3C8EA6705F9F52669C1DE7C4832B;
1303      :    B9168245493EDE6B049F666FBB84;
1304      :    3B48A6D45AF77EE9266469CFFAB2;
1305      :    ACF07A1F316518130A325E616F3A;
1306      :    94D1662F18C22DDEA82A5C61246E;
1307      :    D130B4042D484C09E902027D1425;
1308      :    8227C76B61254FE943DDB22FBD58;
1309      :    A3AD526335676A42B355F6EBB251;
1310      :    23ABA379B96F67A3360DA6E7FE9A;
1311      :    CD50D6C18F8F50D6C41DC18290BF;
1312      :    6AF01F0D4662ECC1800A137148B3;
1313      :    D6FB3AACE7E0A0FD776B590D76EB;
1314      :    77CBA0D75AF66AE81617FC69EFF2;
1315      :    FA2656865AA302E22500903FEF96;
1316      :    BA538FB5A1BFA69388C3F78B63A4;
1317      :    CF660FBEB7E9B9F5FDFB5D307A5F;
1318      :    F762323EA4E9D9B1FDBB2BDF5FEB;
1319      :    CF7BDBBBA7CA09A6B8E593FF2A77;
1320      :    DC62F5DDBDCD51ED522BFB34EE1C;
1321      :    AEF23E088834C54D5C71481823A;
1322      :    18A987365A1502F21C1B64DB293E;
1323      :    6FECC04F47B0EED8376F05A4F595;
1324      :    3831342E65B604E02A3420432335;
1325      :    38D34D6325B5EE82194D6D510527;
1326      :    4DDE2D7CEF4909E590DF1CBAF6ED;
1327      :    445E263CFEF9B5E7D97ACB1A34BF;
1328      :    34BB7579051181E0DE7A975D1275;
1329      :    728A7A72398C4001335EB5C7AF90;
1330      :    6BE4A526F497567106568DEFC905;
1331      :    DD05173235887BE71F4B099A053A;
1332      :    664016464CF7C678E3B5E809C8AE;
1333      :    386004C1C8AA456A224CA0CB69A2;
1334      :    764806675B870A229647F0EAAB22;
1335      :    D9A779BBB281716D45B250FA444D;
1336      :    76FA5E3BACBBB891F7328D284410;
1337      :    43B239388CA9A9ECF478DF7504BC;
1338      :    660B13D939EBFBE67390F6674F9E;
1339      :    32142BBD54F136670FBEA6BC90B4;
1340      :    5FA4155000454A76CA1EC6FE8B3A;
1341      :    8CCD68A84765A8EC20287F2532D7;
1342      :    CA319263345435C5A302582592D1;
1343      :    5B32BF72B0D5710342DCEE669AD5;
1344      :    892287C1D8B342825805EB1FFB32;
1345      :    49548ECBCBDC1063783B64852922;
1346      :    134480425B3BB3C3238202361A8;
1347      :    D4E5EFDBAA4601F5C5D9DFBF307D;
1348      :    85DF3D2A00683D318DFAD77E087D;
1349      :    DFD5757D87C95C3CDBDE5F7E057D;
1350      :    D024073D0E3CF58975A6FBB73BA1;
1351      :    9A145226454E5990450C3246981;
1352      :    F745332B95D75C2A802DA62C1461;
1353      :    CC688E4BBAA1C1BBD43BD0DF89F7;
1354      :    78D60A4F40AB2B65351AE1AAEC80;
1355      :    55D0A808086039B15CA0411021EA;
1356      :    8CBFF69CB9C9B8F48CF255B8947F;
1357      :    156F592420480C25E3CA17710125;
1358      :    9D562136A74A98348BDA5F78045D;
1359      :    D804AC486F4CC5C8748841A77FAB;
1360      :    94C309812D97D59CD496578A7191;
1361      :    6595BF11205DBB6628DB1BEB91C5;
1362      :    5156EF84B3EABE2D8A67D01CAF16;
1363      :    41748B013B22B360F43E44112912;
1364      :    28102C916922850B3026C08148A2;
1365      :    9AE7437A8829EC030F50BF31BFBD;
1366      :    E7153E22844BD5132BDADB76146D;
1367      :    D63CDD2C2649E82685E8DB3C5D7D;
1368      :    424870A72C32DF06BF14B85243D2;
1369      :    243958CB1632190F140DB846D916;
1370      :    66F99EDB3C2357CD561364C7CF92;
1371      :    8BAB18D7D0D7CD800394383352A2;
1372      :    DF9C9A8EA840C1C765F96391323C;
1373      :    78EEB88ECE9E2B476E0F4B1517ED;
1374      :    6B4EE4FD1DE229A5F3D02AC3D411;
1375      :    44981E9FEF1117997161EC49584A;
1376      :    43A93B35E639971883635F4F365F;
1377      :    56419479F1AFC28A03C4367EA863;
1378      :    320B04E3D341CE2A0A51BC3CFA84;
1379      :    422372BA52B4EA4A337D9EFCBBEC;
1380      :    F0B48F8369E96953E49F5113827F;
1381      :    40550A81696AF0DB2437218D298F;
1382      :    80550F81273CA1F920384120C292;
1383      :    A68B990DECCCA50FABA2FA411AFD;
1384      :    EEEFE9C91A1DF72DC126D6EAFB59;
1385      :    CC77558D8AC312FAC0B45B2D385D;
1386      :    6C7A8EA68F9287C8B44B65A96DA3;
1387      :    FCD8C1024ACBA7E0847D6D8AB94F;
1388      :    7DB06C2FF14F8262D09E72DB2915;
1389      :    61C4E72C1A6886D5E2B45B928D8F;
1390      :    4831FDBC3962BD13E6FC177BF150;
1391      :    72910A14BDB1858FF767E08D22F1;
1392      :    AE420A48A3F0F49B0BB0BD6BAB90;
1393      :    34A00A23180030122B6A09070E21;
1394      :    85BF203EF64908BE3DE25E164CEE;
1395      :    2B03632449A8BE0DEF40426BA181;
1396      :    684AA2041FAF36712E5708907B82;
1397      :    69128EBF4A2670DDA46A691091EC;
1398      :    210F3A6040BE7E13FB62BE56D884;
1399      :    DE883B548A1DBFEB1164DF376D5F;
1400      :    DDB77F30A6D9A1F51F2B7FBE1D41;
1401      :    B2463E045542D793462DA48BBF2F;
1402      :    3AD2A2E159E746524405E0E7BBE3;
1403      :    A0E8AFF3F737576A5C05E4C7EBA0;
1404      :    77C1D0318B12E70201152AF23942;
1405      :    41D44BC4F557580AA9F5927AF010;
1406      :    C2549260E0900D10B1B30C7B702C;
1407      :    DA594B2B6EDAF0F922B05A35625C;
1408      :    1A5118836160AD9162AFF68B04AF;
1409      :    82501EAB20F8E9323BA9FE7D43BA;
1410      :    4DEEF83AFF0D13E4764E05BC0557;
1411      :    F9C7DDFE56D3A7AE8D1A5C3D445E;
1412      :    D5FDA52ED7838DCCF34A5E6D5655;
1413      :    B813A302D73D90872B0A2070EE5;
1414      :    E41782F28F6DD927681AA4E1F73;
1415      :    2F3134A10C77418A1761AACFAEC2;
1416      :    45FD4C4BF787C18ED1E7D31C2B52;
1417      :    66FD78CCD2AE73DE94831F0896A4;
1418      :    487CFE8F58B2A7CF7E2F4994EDEA;
1419      :    A5D8C8B896ECDB7383D8C77BB2D0;
1420      :    8201DB1400035815B1B89468E9B1;
1421      :    83016378A4415B2C93D25E5A0C4C;
1422      :    E637DCFFABDBA8B4FB9BF7F856ED;
1423      :    7ABF438CCBFB10D6D2AAB16E569F;
1424      :    99BA9BAFCED66155C7226B79C6FD;
1425      :    A120722A5146FE060A21C7394828;
1426      :    B8221165FD18F3BB212237E0FF19;
1427      :    91EF253DB11DA1EDD9A0C77F38ED;
1428      :    BB101FB55D77AED40A773AEF2EA2;
1429      :    2A103ECE6E368B967464E4A57F5D;
1430      :    2149865043A797024E35C2428971;
1431      :    3307DBA809698165A606DBE208BC;
1432      :    C60BE8FC40C14B044790527C84D1;
1433      :    943DB6608401249F03725E7A023B;
1434      :    B0295CEB58B7468A9645F06FEF93;
1435      :    4CCD166F1456596A1BC5AC2E87A6;
1436      :    C6253C62395151360785E6F62FDB;
1437      :    EBE5B304994DF977D6FFEF9FB035;
1438      :    6D9DF36D2607272617AFAE7E8879;
1439      :    F51501D1B4922AAF3D0DFECD60F;
1440      :    D70D3794A96D7C62CBDA3B63D4DD;
1441      :    D21E518D92EA4A974FA1AFEF368C;
1442      :    C8B633AC3EEB6865C6991E73D53E;
1443      :    BF6650EAC0BA6E803B069630FECA;
1444      :    94C154A7D496CA2A06E1BFD4FEEE;
1445      :    62211CCD08B6EC1A3B64F3B7FFBA;
1446      :    594CB976C42E556DCACC1D30F451;
1447      :    2048CACEC894F19EE8040C865906;
1448      :    C9BE9E6C0F3BDC8F06AC65240;
1449      :    2A233E4640EC6E192552E43A28B2;
1450      :    26A31EE34936AA303F1CDCD9C1D8;
1451      :    BA57CE33EB7E6133A5AD96EFABBC;
1452      :    7F63C91FE9BCAD75F4A0F781458D;
1453      :    FFF6EF31A7ECA1E5FCB9DDF9E4EF;
1454      :    2E8EBF2EE5C88DA5A2B65B37547C;
1455      :    667807F53FE572EF5336DED6CF25;
1456      :    8EC286FFD9671A73DA4FFCE68A2E;
1457      :    228807EF513F7E22CC16AE46CEF3;
1458      :    6051FC98428B0088168D190217E7;
1459      :    C6E924AF0493448A1FCC6FCE37C3;
1460      :    3FB154CC7996C6CA5E17234FFEE3;
1461      :    4988DDCCDAD4265DDBF51F1CF342;
1462      :    F99DC0CE9B9A96CF46CF430C7B1F;
1463      :    4DFDED94DE0732DD1C6F458C5A13;
1464      :    4916602EAA0AB14C86CD81A91379;
1465      :    CDFFF94B961BB12D92D2CDDA893E;
1466      :    FDC5FC149F9480710BDE0F2E1C37;
1467      :    BC79482DE099108A0B0B7FD7684D;
1468      :    DED1E4DC3A11237D4341F6D3F43B;
1469      :    BEB290474EAC47960B416009396B;
1470      :    8F6E65DB771949FB09CBFD7C1CFD;
1471      :    EAAF7F6CB5F1B92135C00FE83AF0;
1472      :    C577FCAF8758ABA9BBC8156C06E8;
1473      :    7D729575590752AF181FE94C9D33;
1474      :    F9668064909C16791B5E0F68D5CB;
1475      :    D9B44605102D5270C8D88798A93C;
1476      :    3CF98DA79E9307D84D6D4991C677;
1477      :    88FAD1C5518737CA0F5F018B3481;
1478      :    F5D8DBAFDAB29CD90E534CD95143;
1479      :    ED0C681CD5CD1E6EDBEAF5381A57;
1480      :    EB0F30CB1EC5B4EE5B409F4E7BD1;
1481      :    3FA91DEBD7392E3C7E4406AC1324;
1482      :    2186B26183BACA258ED0AE2A9310;
1483      :    51DCEFCCD1846265CC260BA0F180;
1484      :    D1F686DEC2887125C46E819B8122;
1485      :    9C2D0437691823DC39BC72DD0069;
1486      :    980BEC8308F2DE902A4FB0E33BEF;
1487      :    B8A2C0EF630E6EF28987A6A319A4;
1488      :    672249BBFDD9D9BFB8C6FDFF39DC;
1489      :    D9363BB681D1F770FD48572952FD;
1490      :    DD360F1CE7B88FF5FD2E45B9D07D;
1491      :    7C0DA4291B2782E25CFBC5CCAFE7;
1492      :    FF454D3413CE46A3208DE768B9A7;
1493      :    BB9AE570D10B1A22880CC66B885A;
1494      :    D4AD755BA149996B87B8DB7D007D;
1495      :    AF7A419A90CDE2934350B24F355D;
1496      :    A76C606A31844EA0DFD30F6EC74E;
1497      :    A72B71D3D14D06BE5DD7BAAEFF9E;
1498      :    463F0AFBFC8F2BF312E7B4F0A594;
1499      :    F2B95EFCB75BE2A237AD937D8E9F;
1500      :    59F68F34E38721F7ECBFCD91CA32;
1501      :    D82CD9112C3C19EDF49DEF951EE9;
1502      :    816AE99F6881E49ED0C71A845E48;
1503      :    9E23668A0AE861AD618FF2357C4F;
1504      :    42FCE2067D661D0E3517F2C1BDDB;
1505      :    261338A36CE7A98BDE25D882EBC2;
1506      :    EDED95CDF68B96BE8CED4B4C7575;
1507      :    E7EE654DBEE894DE5C41BDCC7487;
1508      :    595070859A94DCCA4E370301E009;
1509      :    DEF83DB1B9F49E9161C7569E950;
1510      :    99AF2278005CB1BB0A7D466A885E;
1511      :    95378E1A3571F1792900DE4CA67E;
1512      :    39D5EB39E9F1F1E3E0F86F349074;
1513      :    3725DBF6F8707B49A3F0F065F58B;
1514      :    20926B76F4748307B9B4FAD7E4C0;
1515      :    800B3559B7C48E3053B9D96BA2;
1516      :    43505C86E4B7E09B5CCA683D2790;
1517      :    46FA58996EFEAA9EBF7F0AA75BA8;
1518      :    4C5FCDC39F8B3DFACC794795152D;
1519      :    CBF57D5622482965C4911A420068;
1520      :    4D7497748318C5F1D7FF63EA0035;
1521      :    88C08A29CCBFEE45473D64607720;
1522      :    2B1FEF00BD7D55832E005462B7D0;
1523      :    29817D31BE744B16BA9E6FC71973;
1524      :    A3222C6D86BF1025F19358B500E0;
1525      :    FF77FF45E6B272A9FA4A19ACE593;
1526      :    D8385C85D1ECB7E07238419429AE;
1527      :    49FCED048BCFED3FC0CDD19B2B0D;
1528      :    E5F78D7AB24FE93198A9DF39D85C;
1529      :    CF1F816CB5488925BAD4D37E1C5D;
1530      :    B30F61A4F8EA7915F3D01C79344D;
1531      :    A010719724E6221B6422160C651C;
1532      :    80186F32612A2185A533506B60AE;
1533      :    B760216BC52D4A682FE27F78DEC0;
1534      :    87D62A69570559680AB2F76EFEC5;
1535      :    873D3DD4F37DC9ACBBA0437613EF;
1536      :    FA19AD05F3A666DF684FADCCFD37;
1537      :    5308C7805BBF92CAC22F6DADFCDB;
1538      :    139140A7B3F437A3507A1876BDA;
1539      :    29547C42226BB7C42C0C4D8D57A1;
1540      :    B3B8682B6237CD90209A3A0E1BD3;
1541      :    2A2559783D76FB8FB3A0BA6FF3F7;
1542      :    2FD17D0898877B9F3B06F89FBD1A;
1543      :    4AF05B47F8D0B2AFB029C1CEE951;
1544      :    3294BF044BE6978A60F76185FDB9;
1545      :    66B5C07914001BD715F96575B8E8;
1546      :    D204EBA80148F8E10FD9E3BB8AAC;
1547      :    D4111D9EA6C9202DE478EA3204CC;
1548      :    BA921314853676214FC0BE22DEC5;
1549      :    14BC726C670708850EEF3BF724C8;
1550      :    BBAC7A48F13928AA0893D87FED5E;
1551      :    AD6FEC225A8B9E2C300A118044C5;
1552      :    4433685B366C8A8028598DA24DD9;
1553      :    61790DCB9434EA5854EA8A825398;
1554      :    D18C2A349502B688A31621849357;
1555      :    3B4AEBD6189673B7E51C6CCAB15B;
1556      :    410EC455CA26D3FB641F0583C120;
1557      :    8E3B31012153513A0F32DC5E9AD0;
1558      :    EB783B03C2371451AD007F3F3E40;
1559      :    D5E7B97F667F9B2FFD2A3E36DC3E;
1560      :    56ABBCEBD6E767B8B599BA6FC5EE;
1561      :    CF7F5FFBF044232473BC9EBE41DD;
1562      :    FEFF62FB13E3BA61B7BC1BF6D2F5;
1563      :    40D6AF058208FBE5E4DD4D82A563;
1564      :    1048795493D0676E4156011C2AA;
1565      :    B038979605F70787F6830201CEE8;
1566      :    6930D885C53627A23C074169BF47;
1567      :    F80685EDB64DBA66E8876BF9866B;
1568      :    EA8E27342349F952E0AA0FEAD819;
1569      :    9D2F8DDE37C950B23B7B7D7E7F6D;
1570      :    CB055A9F1850183FAFE04468B67C;
1571      :    6104606FD86A1A2FA02026B101E8;
1572      :    15A970745D67EAAE80990F7CFC5A;
1573      :    A50B80C0D1344A2818553C4EE452;
1574      :    3F0A0282D3764E0800F2A6021562;
1575      :    EB8B339C11287C215B1292FD5A8F;
1576      :    7ED512A7048C27D51B61F7E0E78C;
1577      :    A43156414132D1602C39F44D49BA;
1578      :    B533BAA5D9B74773D586B360FC02;
1579      :    EC42A61DD815BA7E6C4E2DDAEEC0;
1580      :    1C603A69D2F5711A29B4F252F88C;
1581      :    4347B846092CFD4762B6A64D1115;
1582      :    42926A31F8F4B143BF2861A3FCCF;
1583      :    E0B5CCA3A2EA49CD2428CFA573C1;
1584      :    37F840AAEE1B94E9FAC10FBC5600;
1585      :    1A971DDBF95168ACA6F898C4715;
1586      :    21C96555D50D562A04450D09F790;
1587      :    EDECE9DA1AD805ECC46D4B540354;
1588      :    D8DF9BDC8D8202ED074C4298134B;
1589      :    5D7D212D0A4516C154430F95D677;
1590      :    9C9F648F311616FCA0C7CDCE34DF;
1591      :    381BC84C3D9134DD17461A0CF7D7;
1592      :    BCB1700DACB7D7C85ECB41197FC7;
1593      :    32101905612756027C7CA08BEBB6;
1594      :    3353DC03C927A6C27C65E0C5EB48;
1595      :    2030DC8248AFA2DAF4DF61A949E0;
1596      :    27B23DEF5E20CE20D1082CB78CB0;
1597      :    7F0937FAC5495A398612CE5EC86C;
1598      :    DE761FA6EAD18875CBFA5E6414FD;
1599      :    B0EC8340407DEE472F17B3219F91;
1600      :    B78B76F97C374BC2431530049FB3;
1601      :    2E91D2431777E44A3805B2E7AAC1;
1602      :    B25B506B1AB24F805BC1BE7E64D0;
1603      :    4231D0EB5A74085047A3847AF7DB;
1604      :    D7A2868AE7F6C980FF11166447CA;
1605      :    D744E7DA115FDAE7DD5D279AE036;
1606      :    DCEDAB4CB9CCD176F5F6FF3B801C;
1607      :    A116B77E686C1D07E3B4C3B381FC;
1608      :    6A0208E4600146235312820B0280;
1609      :    B2A8078515DBEC025622A0AD5DA8;
1610      :    2A0820235EA16E6B7621B808DBA3;
1611      :    27B66BF75B31BAC6AD6D7F7A324E;
1612      :    FCE268FD2350B69188EB1231630C;
1613      :    3D9600F3E78E20342949C4FB624C;
1614      :    F79CE2F4D5797E30FBC82E64D271;
1615      :    810F13FC1C51617E62C2146B8A39;
1616      :    AF87017585091D2653C03D38017D;
1617      :    E8E1975F45F2464A1E4A78E57FB1;
1618      :    4E6156177F7747980695FFC7BF1F;
1619      :    38E946CB5FA737AB4047FA6FFFA2;
1620      :    A6F8433754310AD02D512F72D684;
1621      :    B58F30E921D930BA19205A7F43D0;
1622      :    9ECB50FAF7FD0BAEBBC91E3E37D0;
1623      :    FE2CEDA2636C7BC575106A93136D;
1624      :    EF0639FD511467F432FD71FE9D8D;
1625      :    B47D79FF3F08AB3D966019BFDBDD;
1626      :    E85C830146A4B72BC4DE28CCECA2;
1627      :    3892CE9789ABB6AB64766101DA62;
1628      :    61364287DC1F966748BF6988F935;
1629      :    6E7E62AEDAC8BACC4E4A5E38423E;
1630      :    9DFBC29B3A86331DC46F59D921EB;
1631      :    98B3998F8F986C1DC9125A09702F;
1632      :    E2AFC370E578E2795A637F3AFAD8;
1633      :    BF0F53BDFD797B2733E36FB5DB41;
1634      :    6707F4859FDD3B3FBF49A77DFDD7;
1635      :    1E48E88D7DA22E9D1A6CFBCCEF6F;
1636      :    486AE549992EA2959253CD84A933;
1637      :    F8665F8E0A8891310912EB806018;
1638      :    65C10FAD0980B50507392D9102EA;
1639      :    DCF9A4A54EC1C44E4E984B8D1763;
1640      :    7E7AE6C79AB207FD640F6CA0E7B2;
1641      :    5B0B3E76B1EB7C65F7E89E121F8F;
1642      :    8957FFE4B16EF475F3B3EC3B325C;
1643      :    D9D4DB26AA30B7F0C8BB5931543A;
1644      :    BA2F53ECFC7A4F404B861760FCCD;
1645      :    F0B51E0C343869514AB8E77FAA4D;
1646      :    8039E202117069012B90177A8838;
1647      :    3B2A3265D03E5E810A4425E0DBC1;
1648      :    6B00A9665897D7D94146EA09C6A2;
1649      :    107CE5852A8DAA5DCE4B69B08326;
1650      :    B34E4B2C85F6EE9D9AC68EF4F453;
1651      :    D03BF670F454AF4D3832DD74BB5E;
1652      :    B5B30B6491BCE4E919CAD62438FF;
1653      :    3C127262AF4CA03C755BE8BEB80;
1654      :    40CBE7F8E79DC43FC858FC72C111;
1655      :    A6E29F51C6016E7F57522FD38B35;
1656      :    AA2118326C70D919A322F83F6F9C;
1657      :    20873301CF16D4C5304AA2BFE18;
1658      :    324BA23C6D7ADC96ED04986FFF10;
1659      :    DCE90CCBC7C62FDF7C1F00894DE2;
1660      :    14793CCB338682E09F1B40910C64;
1661      :    CDD6B46715DA25D32BAF454037EF;
1662      :    20FBE7F412AFEC274A3D6583CA5D;
1663      :    859DAF6CB5555B235378FF4CA26C;
1664      :    9BADF33091675D32C2F0DE7E9C51;
1665      :    5FB0A4DB3ADFD9FDC77F41CD6D3F;
1666      :    17FA51E3E987B9DD9730D6FB185E;
1667      :    BBF62B8FC2BB1B35CF0334900610;
1668      :    973F57F4CD6950620BDABFAD34FD;
1669      :    970BD728B52548E32FDBA67C5DDC;
1670      :    986F372D92194C63C940BE7F7F68;
1671      :    A8478C8178BE48DE1A977C176FAE;
1672      :    C7A65765C22AEC720C76043AD4AC;
1673      :    E55C84BC51FCCA729D0AC76A7DBA;
1674      :    FB69D3CADE974BA81960BF68BFD0;
1675      :    BFC6EB08194ED3C35775AB3CFA57;
1676      :    DAD76D29B84FFBDFCA02FC84FB09;
1677      :    5844DC3A2EC64A5376C5AE9AE3B4;
1678      :    CE379878112BADA53E96D05A625D;
1679      :    B8217CFCB390AC013F6C8265E740;
1680      :    8C51984A900891141D0D059200CF;
1681      :    D1E1D9008208C23180EC1F7A91C0;
1682      :    D30DF544904856619BCF12FADA50;
1683      :    791C29B0FB97B6622E6D61C9B357;
1684      :    E93C85075116B0060605638F6A9C;
1685      :    30F823375BB3FFDB4EB141A59E85;
1686      :    860951E99A281E32B34A3D3DDC38;
1687      :    D32E5CAD572864EF19A2B46DBD27;
1688      :    D50BE53DB791A36BDF4207FF1079;
1689      :    2C0A2B97DB7C2EE1984BA7F6B81;
1690      :    26AA306BECB74E1E1C14B8CE9F90;
1691      :    26B92D3D13540728194A6CBAB38;
1692      :    D18EC482CBD4E2CAD04C2B213920;
1693      :    E68C6512687513E8D0B6F9F5EDFD;
1694      :    84EF39F16B77CB2395ACEAF78DDC;
1695      :    99D1D5840A6BB5F372A74111720F;
1696      :    6050CE2986AAE49D6622B941EF7B;
1697      :    60D2840848A625A922EF45806BE3;
1698      :    971B78B4B7C97A648B4A543E0459;
1699      :    A95DBAF6AA0307B78E5E0CDA02AC;
1700      :    D9081C5407C920F63BD3587E0DBD;
1701      :    9D76FF488348F9D1ECBE97F2117E;
1702      :    B4F62AE0B0493FC1B5B851F6F409;
1703      :    65B86E7A7701FFA69AAAD8DF98B9;
1704      :    26291AC358F2065E5095F11F2BB0;
1705      :    70491E1B7C77B723624524A1A9F2;
1706      :    46BA0D9FA7FF96DAFC6F6C8D4BEA;
1707      :    40CEA7DFDB45397BDC396D60E57E;
1708      :    4CEF6DAEA2C4685DD0140B701164;
1709      :    56077D20274A09A4C9FA6E7B002D;
1710      :    B7A34731590144681B5CA2652F31;
1711      :    368732F4EDBDFE0ADB421DFEF5B1;
1712      :    F34375A1D7FC00A90C7E7B4FF7F1;
1713      :    68508FC52233659B8857D0CFE9BA;
1714      :    48FE8F1F82726BB7186E55882BAB;
1715      :    D05485014B0837CB6CEC791C6A57;
1716      :    849FDD9CF3099035AEB21B2A107D;
1717      :    A41B71BC224A5B3786F0963FB05D;
1718      :    AF5F701AB1E83035837AD438CC4F;
1719      :    E5AF73FCF7CFBCE3C3D38FEDFE60;
1720      :    E74F02FCF74F7EE3DB4B266DAEC6;
1721      :    ADEE66F8754B7C64DB520E7C3C6A;
1722      :    8F5A0145D0D7138AD857A3CBDBF6;
1723      :    AAD19245F08B5CD61C133746EFB8;
1724      :    A2A05639D83045E29149E56FDDBC;
1725      :    89E9C89F7C73F1141F0552944C15;
1726      :    6DA9A28F1A558634570CEB82BD9B;
1727      :    24E880DB8D85C2DC101A0A8E6B02;
1728      :    F7D2BBA5B269BE1DFF5AEC38DE44;
1729      :    DFC4A0127BC4B6F782FADD10040E;
1730      :    99100D89FD44A31D20354C31511F;
1731      :    36229663573645205014A4B3EBA0;
1732      :    BAAA17F3F59D43A617AF5C7FA7E4;
1733      :    97FAFCD5EAE9E685776C1DDFC7E4;
1734      :    48F4AF9FE68EB1E9403F4C94D62B;
1735      :    CC34F900047E5522C9BD1B455AEA;
1736      :    B1540BF66498ED167F276630C768;
1737      :    A953DA74313DC6694B6E8D39FE5C;
1738      :    95C1E038FC905E1B4759BE74FD00;
1739      :    AD8B37A88751CC2B889C8E6FBD9E;
1740      :    12C11B7B1AE66C1A13952408E9CA;
1741      :    3EEB062A17C6088233BC27368302;
1742      :    52EEF8E3796F608E339DB3FE7996;
1743      :    53E8F6D978B100FC44297332E28B;
1744      :    92E910CDED5C0D51A19C13710968;
1745      :    BC699DE6C514877B5631D0B50B3A;
1746      :    243301CF722704DE020FE4E96B78;
1747      :    38836B400B64FF11A50246B3A924;
1748      :    ADC2F8043329B359AA205004A8D0;
1749      :    EFEF65A9B5F9EBFFBB30BF6EADD0;
1750      :    CF3775F5F26BE164E35AD4671961;
1751      :    FFDEDE78DFE02AE7F5E8367FA969;
1752      :    C472A779C7EDE8E515DFF7104A6A;
1753      :    3200B7F550EFE0A3AF8D6245AFEE;
1754      :    AA7ED8BD60785BD1A9ACEBB6AFE5;
1755      :    8DA37C402A67954E67007B118981;
1756      :    1B2B0C01A857F1D450C862A10331;
1757      :    6BC02D1239B7FDF224BDCF23C1FD;
1758      :    EA7486839B8AA1E7D53761BDEB26;
1759      :    ECF45C84C7E8B429DE63571EC64E;
1760      :    7030C4444DA0318D265599C065E6;
1761      :    FEA959BAE739295493BABB7D0AFD;
1762      :    CF97396A21C8E490AFF9DB37125D;
1763      :    D515C8BE05CA3DB1BDCADF4E0D6F;
1764      :    D3BFF37CE569FEF5CBDABF3150FD;
1765      :    F7AAEB57AFE8E6651A1BE730862D;
1766      :    9C77E326A798B87581784D31147D;
1767      :    3A40167303E2AC983954BEE3EF96;
1768      :    82608076540284F40C1505EA53A2;
1769      :    354313755415417C5215857F693A;
1770      :    20A20BE60316CD010158EE835280;
1771      :    F8058852F7DEA5FCC8EE5511361D;
1772      :    DADDAFC0E859EFA0EFAF0ADB22F7;
1773      :    344C0C2759006F02944845CC0680;
1774      :    E7A38DDB27D4812294FA497E8E46;
1775      :    4FBDF5FBF71DD9FCA0AC5F569C9D;
1776      :    12B19F07E7D4ECDD23BCC5B90885;
1777      :    D38F7D1148497A81D29E69850935;
1778      :    21E802D48A7172CB6568AAE9EF90;
1779      :    B4B616C36272A13B73309A59523C;
1780      :    2E02D7D4DBB62C0AF9019035E8CA;
1781      :    6FF6E7FFD7EA98F1DDFBFF31F622;
1782      :    C75FFD7EECC958D5CABB3BB56C7F;
1783      :    D33958AB7E79690282B9B3453C7F;
1784      :    F31F4C2C087049064738F75E8CD2;
1785      :    824B024A738449D8025C954BEA98;
1786      :    D049446361A1C91008514DEBA92A;
1787      :    F9E4C505D9D34CDB699C6A6A786C;
1788      :    86E375FB466DCDEA33FF805CAED4;
1789      :    27FB67BA6E654FA23363246E6FDF;
1790      :    1BCB4CA14B4109B03320F427A991;
1791      :    1CB641DE2259D9E1C9B59753207F;
1792      :    76B7E0FEA7EA2D5818B65A093678;
1793      :    FC0BA92BA79B4C189D05D35C0D5F;
1794      :    B10D23A11B1442BA2B503C5ADD1A;
1795      :    C11A26BFF64106FE18453458D853;
1796      :    3BC843C9A10D0ABA88C9AC3EE94A;
1797      :    4665AE8368D6E1C33FFC650E23BE;
1798      :    6E92DF36F65872B3FA3F66F2BEC;
1799      :    3233793AFCF6A1382360EB3F67D5;
1800      :    274F137ABD157F621B552FEEACD7;
1801      :    47CB017ADD0748F01FF3AC6E96C6;
1802      :    25A1FDB0098C420A165904EA8346;
1803      :    CF10AE5011D356DC54FD44B2A1B6;
1804      :    9012080C2A428DC0653AD30340A9;
1805      :    86A317218F5668210122DD3101B8;
1806      :    E2094A3E2D6AA021B380962D3C0C;
1807      :    6BABD918BC403A0EFFE0922E59DB;
1808      :    E9ECD8AA3BABEAFE12D1F8B4FD6E;
1809      :    872C70D8E721A0E81E4948EF3E5D;
1810      :    37C9505A5792228B19C4B6FEFD08;
1811      :    ABE920F97137CE1A2785266E7DD6;
1812      :    674D365BD7D444AEB2D5966DBDD4;
1813      :    668D4A7A77052E25C3B5AE6E69CC;
1814      :    6F768DC9132E4AAE992D67C6A123;
1815      :    DCE88745FA85F3D1DCDF451C32B7;
1816      :    BC1DD4C9EB57405F14BDA299F5A7;
1817      :    686BC2837D5463DE640561291FF6;
1818      :    8FC273ACFF627854A3795C38EE4A;
1819      :    B3887A178CFA1A9747B27D24A51A;
1820      :    9D110A372699C915ED334B7B007C;
1821      :    DB2272FA51236E311B587375FEDD;
1822      :    A66675EB40316D0133708CEB95CC;
1823      :    E42B0478714129229A90C04F08FC;
1824      :    62501EC48CD69FC24CC7E689CEE3;
1825      :    75D6D69CCEA357C66A6B2BCADF36;
1826      :    455E060052AF6AEA189DB14E2E2A;
1827      :    6D3F2D59AF4D8E55C63609D0955F;
1828      :    1CCF523687D674ACF6310AA010;
1829      :    7DB0AF30B443B3EC907C51967015;
1830      :    14DCA4EBE24B81D26435ACBF098E;
1831      :    211CBB56130393B3A5B0C5BFF2;
1832      :    A223BB33D77F7CF7437F0F5CD92;
1833      :    D318FC0D51BDA9EF87FAE5B081B8;
1834      :    589E3FBEAF84A9F1ED9D45B600BE;
1835      :    D8FF9D342FCDA1F567FB57B446BF;
1836      :    DDFD705EA2790971E4B8DD5F2559;
1837      :    B6636639A07DCDB8EBADB63F368C;
1838      :    A3EF30BA66617A82AFCE9EDEF6DA;
1839      :    2E2945D371056FE01357020E00AA;
1840      :    CBA980DB510882F4C50A457B0CCE;
1841      :    F59FBBF940E82233198F735AC0D5;
1842      :    E571C5DBCFB707CA6DAD69AE7F71;
1843      :    7FA8845BEA7543E841D9684581A1;
1844      :    2A2911729B1716864006BAC62A11;
1845      :    224B506A947648043BC0B66A7C50;
1846      :    47F99A055CF34F12DFA5BA6AF6C2;
1847      :    45693ACE060EA261CE60BC48B0BA;
1848      :    FA6AF23A388EDA7595F006E0E2E6;
1849      :    F2CBEE1C20E241E0BDB20373C2A5;
1850      :    F8EE428EAAC96F0906A72B935FCE;
1851      :    93073A220078CB09A78008ADD700;
1852      :    2A0B0942CF37468035422A274F90;
1853      :    2B4D211B3CF623D19E05BCACD2D2;
1854      :    696086854E9E80026807D1C10BE0;
1855      :    B870B3454BF3D20809025121D6C7;
1856      :    B844C70598ACB602E40779E09BC2;
1857      :    977B18BB37E9BF863B6ABBDD3649;
1858      :    897178BB71CE87FEDA40BC7F265A;
1859      :    DF111E3B16A8AA073BE85C5E46DD;
1860      :    7AA7C3E6923DDA648AC79680B077;
1861      :    508883D482014362C11D2BCAE128;
1862      :    310383E0902D48308B00827F8970;
1863      :    75F5E40E7EC61EC8FC007491BF8B;
1864      :    8A260502294C9DB904C7D2722198;
1865      :    AC8B7BB4E54BAA209FAECAE91944;
1866      :    61B5EF2EAF4096FDAE495984F465;
1867      :    4158E97C5ABE92CECE0DE99E7D6B;
1868      :    2323C6F1911EC4DA408E454868B9;
1869      :    230A63C05026EC137254702AA952;
1870      :    1C14AA1961CCCC1AAA344C53BC4C;
1871      :    8918F084361A9BB2E3E854FAB0E;
1872      :    B1AFF8A28D88BCEDBFFB86433264;
1873      :    EDE6E2DC978296F95ED90788E140;
1874      :    34F96055BA8336DD1C45ADBCBA44;
1875      :    8ADF52B4FE705AC5C82394E4DAF6;
1876      :    EA26997D5F01716781833A7095D7;
1877      :    B19DEB3DD21DAEE7BEFF1C88CE47;
1878      :    3BC85475F4EF56C707E06FA7BFA1;
1879      :    DA2144CBDA57845E1815E8E779F2;
1880      :    41EB2D51CAD5CA73C6DC236B9134;
1881      :    CDBF7B1EBEEFDDF5EBD37DB41D4F;
1882      :    4DF4F9D69F400DEEFA71DE794D18;
1883      :    BEB733831C1BC26D352CE7A865D;
1884      :    BEEFB275BA7FDAD3039BBE62EBB6;
1885      :    98FD1A6D117342230E3DF4AEB998;
1886      :    22ACC2292423BE22D01CBF6EF9B0;
1887      :    227010B2F6B26A985732F23347B8;
1888      :    CCC9128A65762CF1572D40170DE6;
1889      :    7A7BDE8E76A2A4887E3F46846FA2;
1890      :    22502F0512448020F25D61298C2;
1891      :    86B12CA625044A1649C228523C06;
1892      :    D814B80F418C9945E7B847B1A8CE;
1893      :    3BC9B2FA2CE77F7B3FF5B6AFAEF8;
1894      :    841FD47B68396BA21575F2ECDBE3;
1895      :    C72F9150897B492797F0DF7391CC;
1896      :    FF6B52249261DE001FC9B320D4D1;
1897      :    E77040DD5EE3B384249215F75303;
1898      :    20091E0444AAACC832C4B3BD4C80;
1899      :    6B468443430F56E35CC92902EF17;
1900      :    4D3DEC5E77C756C6749D6DCEBF83;
1901      :    6B3BF78116F6F2C64025F5CCEEA4;
1902      :    9BAFF4609A0D997CDE20DCFCB52F;
1903      :    F9FD935C9BAB7171D7F9B595B1BC;
1904      :    5CD53F5D33CBEFF7D63F44FC063E;
1905      :    2EC352D94CB3685BC2B5BE23AA9A;
1906      :    5C7C937D4472E557E1F7B2233CC6;
1907      :    C63110E69478680ECBD38BB29E6F;
1908      :    BAA317AFCCBC4C014300A2B9DA89;
1909      :    B63C6C6F6F71C2C0950032AF0EFB;
1910      :    824B0B7618374E0AB78BBE6F5EFA;
1911      :    FC79052FE7A3AB8B761FED19EFBA;
1912      :    7EE60B37FCF8FD9269ABB9486D5B;
1913      :    5B51BF2B3DE88C9DF1AEFB6DBFEB;
1914      :    26F46172AB49B2E79C5FC5F0D825;
1915      :    D512B8D4120E3421A98E41239744;
1916      :    5F5420D4BA4E1BED9CD957D9FF46;
1917      :    2B0A384EA378EB55A8B09E6840D5;
1918      :    8A277A12A1DE6091F3E02A313412;
1919      :    9291283826FEE9A6B9BAF37F2EE5;
1920      :    684487D7482665E34437609BEF32;
1921      :    99067D6C810186C3F7E2B7C5AA;
1922      :    3DAE4731A559AEBF1B4113BF5071;
1923      :    C4753D3F2C60A5A97CF29835FEEF;
1924      :    5AB8183E2E651BAE1E259F757FFB;
1925      :    674A7BD75CEF36661A4FB2DFCBA4;
1926      :    2598BBD962D754B2949CB0870F73;
1927      :    2869F8DB1C4350DF76A556065ED3;
1928      :    A6F9FFD58C87798F0E0F9A90CBAA;
1929      :    D939CCC3F28687AEC4EFF9B53D2B;
1930      :    ED3CFA1D19DE710E30F5A985B43C;
1931      :    4DB664AD08BC680F5C472701F54B;
1932      :    ABC771346A65B2DFFEF7BF5ABE4B;
1933      :    896DE4CED672CA980F78FB5E65DB;
1934      :    319B4CEC27F2AC891C6A951B6CDD;
1935      :    4CE9DBEB7DF7B7D57AECBE8E6E46;
1936      :    8DA34D40BFC31FAF7733D1792F3D;
1937      :    8F5320F389A93414C54AD46AED34;
1938      :    71BEE31987499865C889DF685865;
1939      :    79FD89398769A7EB8BD8FE58DEE5;
1940      :    60AE50A97491A0D919492FAB85F;
1941      :    FE4BDAFF7EA33EDA1F42A56A6C52;
1942      :    FFE6553BA96042F51A796D3C641E;
1943      :    5374740359AE043425951601E884;
1944      :    24F8EC9F6CC1113DF879B9CD0591;
1945      :    BE8599C6DA11D887274E85D079C;
1946      :    C72814B54937D5AE10E1C0690733;
1947      :    4D9DEE979A51F2EFDFFA4BD413A2;
1948      :    B0FE1046BE8BD74FCD2A1BC7DF3D;
1949      :    7EEAC6549C9B56C244319894F730;
1950      :    FBAD781E0EE32494B4C77D343FC2;
1951      :    9C61F8A3AF979D8EF26D412D2C5A;
1952      :    18A439B7B4DB35CB7687C180BF8B;
1953      :    82AF3350D75FD97DC47C2761BD94;
1954      :    EBBF7FD197BAB57953FA04B8BA3C;
1955      :    54B76FB4E73BEFE5D81EECB76E94;
1956      :    9441404318C363822935B0CEC8F2;
1957      :    3861D40648944D546611601B482A;
1958      :    5E86AF730F7EB6C26A9765950BED;
1959      :    213DE8BBF764B1DAF07A6CA97C57;
1960      :    BB0B7EE6F083B8A4AC184B9067;
1961      :    24A17887F7628D2F78A09A5C7F8D;
1962      :    9335FDBC21FBD075EFF97BB678FD;
1963      :    B27D406A306C6D3206193B662479;
1964      :    D43BB634A2F95915523A5F7C9275;
1965      :    A3420AAD4049AE081A44B66AC88C;
1966      :    ECF0062E793D0FF2204E3F4AD0CA;
1967      :    710446C76978808FDC3D0BD24832;
1968      :    3CDB35E24B14E7C62944254B6E30;
1969      :    B7D965755EA53EEE20696907FCD3;
1970      :    1B69ED78DB1959E86C4CE942F943;
1971      :    5868AC4083E8C3ACC1600A43990;
1972      :    50619A1AA8176311EC061EBE292A;
1973      :    C4E11A471742BF94951B228120B6;
1974      :    4081CB1900564567ECA1CE46EBA0;
1975      :    587FDF7FB086721FC8E732083E73;
1976      :    A4F9EB65E608A7952F8D39AC56E3;
1977      :    404E266E12838C242750847243;
1978      :    C244FB0BF91E953AAC1F240BC05C;
1979      :    6FE2EB190BCDBDAFA4CC4F5E8847;
1980      :    ED3C705C9FD912E89769797DB655;
1981      :    ED0EF0FC1801D32CC229018CBE27;
1982      :    ADEFE375874992C54B4FED6CB667;
1983      :    CC3F3189187148D71B67AAB9B913;
1984      :    C802A22A757670719566FFB32CD8;
1985      :    B01D6838C46DB95B9EAADFFD96D7;
1986      :    2C68C2D3DAB7478A5150B83DE7D7;
1987      :    CBA305439A1640234D5D8786F320;
1988      :    F3EA2761922646221355A8FBED20;
1989      :    7E4212451D7BB6721A1704EDFEC6;
1990      :    7EEEE2E5DFB712EF7D07EDEEF583;
1991      :    35DACEC7D3BF4768541105486C86;
1992      :    A8817B221192A7803BC0437ED7A9;
1993      :    7931001E663C399D2B215315F4AF;
1994      :    5C30988AA280E45D78BE49143863;
1995      :    A0A33BE4C1347416F564B6A95084;
1996      :    AA296199DD876E0EA44AA8D2C951;
1997      :    20E9406B4F9305AC462028034B50;
1998      :    832F79BCBD29182CB280986E44DD;
1999      :    F2E69ED14E14684C320DC6E67BE;
2000      :    97FD70343165C1A49741BE7EB6BE;
2001      :    EEE42655D99FE8CFD0FFA3A9ABAF;
2002      :    D09D0B60706E8273CADBA91E2EDD;
2003      :    D0141D79A236E82359BEF3B9181D;
2004      :    AE2975DBA711B1F829FD79DF7E7F;
2005      :    BA6940FA6EF10ACB7BC9A8F59F9C;
2006      :    726184835FB725BE3D05E0876B83;
2007      :    9F6A9608E49F965CEC21FF8145D;
2008      :    C57760B8AC095E4E4238146DBD0B;
2009      :    D954233C128389016F1D4C19E41F;
2010      :    3FEB527086F168130B71BE2AFE5A;
2011      :    825BFA69395158339389D2F4928B;
2012      :    B20E5A28B0776B242BA0B2649AD0;
2013      :    9EF95473E7EB2EFD787933357EF2;
2014      :    D6E9EDEBE6F68C3C6199DE314EED;
2015      :    FB515AAB61E2A0DC9FAE7B3957E8;
2016      :    36DA43AAEFB8AEA41AFABE9BF641;
2017      :    5FFD843DB7D8C2DE997F3318A92A;
2018      :    586CC10D112E126CDB6D218071B7;
2019      :    74EEEA2327CE83E97E560D9AC72D;
2020      :    5DE371BF75190F098491F5E4479;
2021      :    3A138B406148F111E0041369345D;
2022      :    2AD2809683104FD30B45A400B1CD;
2023      :    DFDC58133D8FBEA93FD905BEA7E6;
2024      :    79444D815DCE91DA6CC3353DFF87;

2025      :    CD5C00C177F959ED3B90002ACA1;
2026      :    E22C3156EFFCDBDEBCF1723BD8EF;
2027      :    8F03330F3133BBBEF4E6317203BC;
2028      :    33FB68B1BFC3382F00EEE4C71DD6;
2029      :    4CC0ECF03E44883B1FC61C12A1C1;
2030      :    39DB0AE5CB8929FF37EC8AEE2ED0;
2031      :    4A0FD4553F06115F6A1132103CBA;
2032      :    445C9F144FE2735FF821A51762F6;
2033      :    761FFD83100B334E701E61C100F1;
2034      :    CC3C4E237CF38182831C058AFCEA;
2035      :    A1683C440259CFCD9DCC32E1493A;
2036      :    CB7E8C92CC3AD132F48D722E21D;
2037      :    71CA0FC937D0FF4DF873D310C8DF;
2038      :    28F39BCF0F22471F0E43B153F7F8;
2039      :    B073F79874CE3C34F303CC0E7321;
2040      :    2463072E113C11D572500F367074;
2041      :    30FE3478830F627094B70B1ADC1;
2042      :    1C08FF0EC2EEF14E250F20438B0F;
2043      :    ECBEAEFB4733D995B7CEEEF3161;
2044      :    C98B07A3C9FFDFC0CCDAA8B81C30;
2045      :    57F2B34B0FB707B09EFC1722E4C4;
2046      :    E413FCCF3F4D3C2651B0304DDEE7;
2047      :    2147CCEA2FAF4BD84EFFE9D0EB0B;
2048      :    83C5C89179803305097848CC48E2;
2049      :    D04B0EE73CC070EDB3B2D33041DF;
2050      :    6DF1B875B024C9F27A2F8BBBFC8;
2051      :    3A13F6B017872C38EB118C8C7F13;
2052      :    2C522F6E963C50DF82788F14D0E4;
2053      :    830ED1C12518EC4799CFB0319EFB;
2054      :    540CDFEBA0E7754E2D3620CB470D;
2055      :    77B31FF302D0716F0519FD108CE6;
2056      :    9FA3EE2A48632807B33FECCD8DFE;
2057      :    529DEE31CFCC07C13AC39D9E1F2F;
2058      :    CAC443EC6414CBCBEE313B0E0029;
2059      :    2F7E3307CED235EB7113F7FD17D4;
2060      :    1F0472F9A232E30FBCD231373FAD;
2061      :    C4022726D80160CD2FC2FEE0D96C;
2062      :    9878A2A30323200950CC883F01A;
2063      :    29C00AD38E0405E141301BA57010;
2064      :    48007158FECDF217F892203D28BF;
2065      :    1D2725314ADF1D17742B040D0A31;
2066      :    F5381FE1D306F387551211D09DCB;
2067      :    34F03FB4723443B7F4D7DE6021FD;
2068      :    DBF78A132038430F3D0C58E4D7C;
2069      :    31EC8ABDBBCA4F90419F7991DC02;
2070      :    4BCCCBDBC1390F8DFCB33ED0E0CC;
2071      :    3C4743EA8920BF546A3FB781DE27;
2072      :    7E0F723A26F6C820E896F24CEAA9;
2073      :    F05C07C4F410E379B572E91CC3DF;
2074      :    CEEBF0F4223B406B0E3C4C2FC34;
2075      :    33B44093C64FEFD087121C84FC63;
2076      :    8CF057D8247D4BD7F330873C4064;
2077      :    E38C62C50E30C7EC8814B6A10E2D;
2078      :    760CF1AF64E7711F1E22B342C22D;
2079      :    37E03FB923D63CAF3CFFC3834203;
2080      :    5C7AAF133350518B0D4B1CA5C3A;
2081      :    F1F9AF0C13FD3460C5D3BD3FFD10;
2082      :    4B32A3ECC7383F5F4CE16F3A21E8;
2083      :    3D0BA18AD7FF77CE1AABC429F2CB;
2084      :    3A00FF64F33640F97C3379FBDDF7;
2085      :    C91C3C524F0D1272D3CEEF06C42;
2086      :    5F3372D4CA0AE40945E4C08AC34;
2087      :    5DCC0B63096E04615C34353C50D7;
2088      :    F8885590F4C174CBD9B1328C60AF;
2089      :    31CAB873AB570B66F06386FF0B20;
2090      :    DF84AD29FD0F6F8B1E3B2CBF9EE1;
2091      :    B0B6B010DCF304C06080958DC0D;
2092      :    AEC93BB4213030673623315BF847;
2093      :    6B002D0EA2141743B8A0FCDD33BF;
2094      :    D01003343497F1C78C7225170D38;
2095      :    F4643B03B6533E3F84C714BC07C0;
2096      :    7041F89E30FF1B83F3035320F0C;
2097      :    12DB074106D53E4C554271C1C8C7;
2098      :    337343DB04B6F247055B163F36CF;
2099      :    5E137E37868D3C3CFB3A2C7C172F;
2100      :    14230B343CDF00D6B0DF073B9D32;
2101      :    33CB0839474D8673ACB74BF0EF0;
2102      :    500CEF5DE3CF7D8D931308E35F85;
2103      :    35371B134CD8F047F4CABEF4FF78;
2104      :    DFA3C218305C3001031389D0819E;
2105      :    26C890CE4ECC37C13934AF22FEDD;
2106      :    CD54F18BFC40C08AFF1611AC6031;
2107      :    B744B51B88CF14B26103733E1434;
2108      :    4EACB7FB5522B6CA87D2F382BC09;
2109      :    CCBCD124D706C0B0E7BC0D65477C;
2110      :    C0C79B4E4824EC8F2A581477110;
2111      :    B0CC02B03263CD8C0C8C1048E8F3;
2112      :    634A3037C1310B206312E6E4C8CC;
2113      :    F8C04AEC930E38F005FE1A413E08;
2114      :    AF3814033C6CD7302C04F9BAC081;
2115      :    B2F75BDEE3F0BB881A2AC76306C3;
2116      :    6475E7FFDF84CFD5E0CB157E8373;
2117      :    1C73531C7379993CB3DDC532CDC6;
2118      :    F577EC4D510F3FCA24ED6704F074;
2119      :    D40ECCEFDD5CC0D203EEB070C584;
2120      :    1751CEEF40AC2C33E18F6EFD5050;
2121      :    C2C98D4F36D3763D873CDAC0E0C3;
2122      :    3330183C52BCAD7005110723158;
2123      :    2F80C3513F063C3CFF99132A140F;
2124      :    A023117073CB50CDC2F25D377CE7;
2125      :    83809CF1A004DB1E44CB7C3F0C71;
2126      :    DB18DE4B6046FB8F178300D34743;
2127      :    F4FA2159630EFDF2F97FD493BDF6;
2128      :    BD2BC73179DA7F4BE33C7B9CD0D0;
2129      :    ECEC0DF0E477E9E4CC8F151C34D7;
2130      :    D24D3C33E134EF703763F6E0878D;
2131      :    FA7B02FCC407EEC6B96F6F57387C;
2132      :    C23EF01B8E3C94C0563F9EBF3001;
2133      :    6AE2512FFBAF8FB686BCD0CB7139;
2134      :    8E7678DDCC81DFF5B0F0F05ECF22;
2135      :    F32C0141B131B47A4CCF1881B8C5;
2136      :    E043107CAF763DB109D72559D6DD;
2137      :    2048AE7C28A76FCC06840F037E03;
2138      :    3A84A663CCFB61D22A784B0C02A3;
2139      :    BAEFC3B8E3F07F12000C87CE0303;
2140      :    69639DEAAFDBC3CDF6CF243F0031;
2141      :    44F1F31C35BF02BD5CFDC53F4188;
2142      :    FD33CDEC470A3F680CA5F205F279;
2143      :    FC07C8ABEABF208006FB42FAD590;
2144      :    A351C814C09836F3C01FFEAC1CFA;
2145      :    3D930BCB00FE39064E0E7FE04AA1;
2146      :    1F3AE73D5C63AE01514E7CCCC83E;
2147      :    65952DA532FE153D36C82F3EDE2B;
2148      :    CAC8D58CEDCA7617E621304BA03F;
2149      :    3990567BE6E70C67C06946FD079C;
2150      :    E2FCED15F746730D8F537C27BC92;
2151      :    88BC281CF00F4041A1714D6CC3AD;
2152      :    C0D289028133038314481833020;
2153      :    318C07D49A0321634C1E12C970F0;
2154      :    2302127161362333F35BE63288CE;
2155      :    FD620494090A3CBC80442E433E3B;
2156      :    7E3C1DC1CC6CC3B00032106086A1;
2157      :    CC3FB6ED8EABD030C7B858F1EEF6;
2158      :    1D194903C8C27D21D7BE4B140578;
2159      :    DD8C08F80E38EC63441C338C146B;
2160      :    A80D397BF0B27062F233B0EF110F;
2161      :    D1E01E798823AA8EEAD10F811250;
2162      :    E03A370BFECCD7050218C0D76445;
2163      :    31312634BCFBEDED6C551EAFF08;
2164      :    F7E0C29C209D40BD2227333D7BCF;
2165      :    C001BC6CAE103C4BF4F8FEBBB39C;
2166      :    DDA432348270D9F40C932C331B32;
2167      :    C5379B8BFCCA313FA6B5573EA9C4;
2168      :    DCC6931561B528D00E8125A8759E;
2169      :    AF2EA324DEE8B732CF0C6ECFA22C;
2170      :    6EA91DFE30512128C30FAAF7F21B;
2171      :    AC01B66D65F6C9A73CE406B047C7;
2172      :    BFC5F12CC860EFB8C43170CC333C;
2173      :    F7AB43AFFD8920E6A43A62BCFC98;
2174      :    CA42F00FB4A5C4F19E56CBA03DA7;
2175      :    AA8FCF42A4D9358D04203439CA81;
2176      :    2AFB977148D6F04B1B762EE825F6;
2177      :    44147DA793952B5B3A3D355C334F;
