-- Copyright (C) 1991-2016 Altera Corporation. All rights reserved.
-- Your use of Altera Corporation's design tools, logic functions 
-- and other software and tools, and its AMPP partner logic 
-- functions, and any output files from any of the foregoing 
-- (including device programming or simulation files), and any 
-- associated documentation or information are expressly subject 
-- to the terms and conditions of the Altera Program License 
-- Subscription Agreement, the Altera Quartus Prime License Agreement,
-- the Altera MegaCore Function License Agreement, or other 
-- applicable license agreement, including, without limitation, 
-- that your use is for the sole purpose of programming logic 
-- devices manufactured by Altera and sold by Altera or its 
-- authorized distributors.  Please refer to the applicable 
-- agreement for further details.

-- Quartus Prime generated Memory Initialization File (.mif)


WIDTH=112;
DEPTH=2710;

ADDRESS_RADIX=UNS;
DATA_RADIX=HEX;

CONTENT BEGIN
0      :    A96B34E17E4B1497DB803174B6C7;
1      :    7765C6665ECFFB7B29912CA61E43;
2      :    E160BB6368FF9B2D72A5DA180D4A;
3      :    F6E0AF78472E46B2C32689B4D132;
4      :    9363F0966B4D5673391FBFD67F24;
5      :    9638838B215253B51AFB6B5E8EFD;
6      :    7BE2FB107179B966A6CAEEA265FB;
7      :    EFA38AF68B3D9B0A4C59969BDE4F;
8      :    DCA3F9A5AC4FE3E4E8274F064B89;

9      :    38BCF1EBB5C6B8EDFDB929D9AFBB;
10      :    AE3BE765545DB4BF15DD3C7EAF9F;
11      :    EA602644B8FFBFA9989410588A71;
12      :    FC9F1FBE3A767B7CDBBBFE5FD34B;
13      :    3CA95E9D3D246E4327CFA6E7E42D;
14      :    AAF26C7A94137F019D7F124F3881;
15      :    FEB2BAB3493B0711A4ADCD1FED22;
16      :    6DDE54788AC6EC9EADCC636FE5EE;
17      :    79DC0D60D1B3AA1897FEEB61ACF6;
18      :    2259A001A10D3B4A050BF0868FE7;
19      :    3CA55A860371EA22DA92EB20AC;
20      :    16D861F140C132DBA1212291B80;
21      :    D4F7B677FB1FFFB71DDE598D6DA;
22      :    B88AD1EDACFFABF7E2D847428CAB;
23      :    DAE3DC9D1D3FD6EAF37C9E92E6F8;
24      :    965740E475D2FEEB5898DFDCDAFC;
25      :    16D1041A47A4BFBB3A6F00DFAC24;
26      :    B72BCEF66A3FCAF37BD9AD8EBEB5;
27      :    3DF6A53935BE4EA8B92A90FCE785;
28      :    D365914161080238301218D0DB24;
29      :    2E4322B029215379D9593F56EE25;
30      :    A3888BA99C201DA22040182D7020;
31      :    81648117D0B0B81A3200D52130C0;
32      :    316253A77EF03A0937F3386E7706;
33      :    2FC4227163AF0A46A524A32023FE;
34      :    A735AB85ABAD67DA4353C84F1B5D;
35      :    6FFD7F7B5FB88AD7EFC6D5E1F9EE;
36      :    50CD81C56E08D2BBFF25D05ED4F1;
37      :    3CE6E4E16688F26319C3B8675EA7;
38      :    721544F156AC0ED3118C5156BC32;
39      :    8BC69A8F9575DB1A2C75FEEC55CF;
40      :    5881286778E0DA990FE7FDE4DFFF;
41      :    48DE2C959CB36C898E9694E673DD;
42      :    EBC739627C29BC236D8E2AA73D7B;
43      :    2FDE29A6C5549706850D44EF6D2A;
44      :    EFBBE934B198B3AC8C6F475D6BFF;
45      :    E9EA4E50D4822D5BC72912233012;
46      :    C1FEC1255D69DB4C0C5943620ECD;
47      :    FFE7FDB7494DCAD42B7BA7F64EEF;
48      :    260CBA54D34244330A9B5B941546;
49      :    B881950266651C1901F4601C3C50;
50      :    77FB9F87547B3FD558734B560643;
51      :    89DB047F1BF4699DD3DF7964F595;
52      :    97F2D0A72BBADEC1782DD718C624;
53      :    10965D9B25DB1222A04F8840CD09;
54      :    963ED8178811656D30E9BEAB0308;
55      :    CFA274779A2CAAD7F5DD376393D3;
56      :    6CAE7B959EBDB89D86C4668F4DFB;
57      :    7166F1686A220CEE83685C910213;
58      :    8700250DC5CF417B2823D3CB5F4C;
59      :    F1D1EAF5B9CA218C4837FB770FF7;
60      :    E8D67E18D5013C48A68004286138;
61      :    8435D28163DFF36F6A294A405CC2;
62      :    FF45E28770FF13EFFA392A3E8EB3;
63      :    C02F9254B08222BCED205CB388B9;
64      :    C35D340BE0BE91AF339D34A12D9A;
65      :    603F6458920420D86213B9EB3176;
66      :    7EE1FB2C641C1741674540B48FEB;
67      :    6CC3568C4D15D251EA40242C9793;
68      :    EA3760DD1352366D45CFC31E21A;
69      :    F3EF7AF977AEDDD7F9BA7E74FCF2;
70      :    3754B023952E6E79FBA97B7E84E4;
71      :    84EB4C51857C96721998F9DCFAE4;
72      :    ACBE3D5EF4FDAC1EDF4784ECF59A;
73      :    ED1BD5C77DDCDF776111D84C0E48;
74      :    ADA3AF537E6A9C8B3182C108D642;
75      :    48900C08B2281497CE363BC0BD94;
76      :    8D7D830A61579F04193D228A0ED8;
77      :    33D6E98A416441548A3B24FFD697;
78      :    BFDC901F01350C22E62F54AD4530;
79      :    B1F0A6C7FEED1C5B3B37D978AC11;
80      :    281C245174A1BC9ABFB06460ADF6;
81      :    1EDE0EB064A654381C47B550C96E;
82      :    D8D1AA524B2EC2B624AEAE9749AC;
83      :    C4EA6700684F4220283F8E914FAC;
84      :    202A23908BC236894E9DA080A73;
85      :    F2446EBC54A04CEA38BCBFDC90B7;
86      :    577F94F126AB38395DEC9B4A1C39;
87      :    D6B7CB353C999D3719CBCFD020A9;
88      :    5E8EE1BFB9BF5BCFE26EDFD2DCBE;
89      :    E4AE7E9E59B5FF5D644B4E5A6229;
90      :    D06B44693ADF92313BAD7D3FF749;
91      :    37E3764ACF4F5DF775B5B7D59F0E;
92      :    98D06C9CCF0924905D4C946B7D84;
93      :    7E6922B8ECB12CC6CA4D087B8BF5;
94      :    2F682EF174149D5625AFEC20B97F;
95      :    8513D4FDC40BC67A20834F53FB02;
96      :    DE6E7D73152CFE95F3B6A9F4F92D;
97      :    4065C8B5A84627572F31D543945;
98      :    5518856A9514132E13D91AC89403;
99      :    D3DDA20C3C255DA68BF83B37AE20;
100      :    727CE40737CA76FE8134C8AB91E0;
101      :    115F2C57F48745B913AD3D7C0404;
102      :    C9EBD6D7FB3DBFD7E5B46DBEB4FB;
103      :    BEFB5EFD5431ADF1F95D6E4BEAFD;
104      :    8E8258799131F5C0C67FD66D81BD;
105      :    F31DB6BA75430AB11A8F2B560EB5;
106      :    DACBB43C714B1EB9D96CBB769E75;
107      :    BC6A36E3DF4B5C798602AB5E96E1;
108      :    BFE1E9E25F3893F3944BAE22DFBF;
109      :    1AAFDD5576B295179FF7EAE8F620;
110      :    5EF4D187C25FFE7DBC525B0AAEA4;
111      :    A80D7463CECFBEEFF9957B65B797;
112      :    480815F5BEB025CC0457A229E88F;
113      :    C378281160E19B392AC732AB474F;
114      :    3ADCFB9E28B6988EA6584EABC91A;
115      :    8B45974076C4561B89168DD4091A;
116      :    C8A0D20290DD00E4062109440583;
117      :    2F7C200B46E1021E9603402304A2;
118      :    E515D8A725621BA81AFA0B5F4BC1;
119      :    72E668A20721C641860A0F9638A7;
120      :    BC96FEF719F663E7CD7AD9FCDEDC;
121      :    E9E6FF7254F0DC49E6CB5B83F95A;
122      :    E9BE557F1EB9BCFDE7E3D0E5F5F4;
123      :    FDBBB196E934EBA733E1FC4FBAE9;
124      :    8E2E2128310C103E96510666F824;
125      :    629555E96A827424E24757B2221;
126      :    9AD7CB6B9B744ACFE7EF91A3F486;
127      :    16C6FDD73C38B7CDBFDFF7A7777D;
128      :    D623F8C4B9248F6BE7105BA50D0A;
129      :    504215D24B74C41E17E6A8E26780;
130      :    7944451D645A49D1C2484366B5DB;
131      :    486D22864A435163011143041240;
132      :    8760C2B431812A6200460FB00081;
133      :    F1208BF5534D512912C09ADBDA96;
134      :    2760A2826D4E61330AB30E924AC4;
135      :    AB6B8036EACB999D13D3195F4EAF;
136      :    74E0AB22402F12A9976080201811;
137      :    56048E628F0A111F17801E9E5C40;
138      :    22649E2A8EA245A983911A4A8AF7;
139      :    600C975F274A659BEE458BE8B388;
140      :    6116827A53DB9EC98310BE9CA572;
141      :    ABFF21ED3FB628C2C54AA6E0C4CA;
142      :    EDBFBDF7BB3DC10D2643D7A9C70D;
143      :    6A0F75FAD3B02CCCCEC255A1F192;
144      :    BB6A2440D20C5253BF088AB49D33;
145      :    47C14E3E3B26F1133A5035E1C62;
146      :    E9112C68CF8D5FB1A9C209DD9161;
147      :    5EEF8AB5BFFA64F0DC30FE83F29D;
148      :    5FFFCCCC81B8FB21874A9BC7CA75;
149      :    70FF676FF5F8FF5C343EDCDF5E6D;
150      :    AFB684FA75158FD27DED7786A68E;
151      :    39C718EDC112A069D50ED630A99A;
152      :    8A9E51ADA1914210082AC783828D;
153      :    7EB8406BA135DE60D66F6A5B697D;
154      :    78A374B21F594E5041CFA1617261;
155      :    7FA2D247A1B57DF124F7AE130EA3;
156      :    938298E0BF73A19394716B1D09F3;
157      :    F59318B0A04FC9C17E8C769945AE;
158      :    7CE2FF6138DB1D44BEF8E5D62CE7;
159      :    91BDC475777CB93C5BFD39584C7D;
160      :    B56AA62675F82CAD37DCAF565527;
161      :    1C3EDCEF1586588C9B7F11588E14;
162      :    125DEF077467CF65D73DFA700D50;
163      :    DF3EFC250A05BEDAFB3C3C7D96F4;
164      :    18FE9FBB437CF73FFEE7BDF8F7F9;
165      :    E0397A88B00CCB2EC6CA83DEEFB4;
166      :    B79A28C920F720020C2E7FC268C5;
167      :    CFBE1F9B3DF0A9BEAA6FFFEBABFC;
168      :    5A41A24841C1149AFA08285412B0;
169      :    D0000230498FE271612528782047;
170      :    E04A7BC02449B198F00B435C05F9;
171      :    C73F6FEFA8D7BDEBBAFFFE496AFE;
172      :    36473C8D4401815AAC185A276A99;
173      :    489E669D94A0AD68C6A4426B2AA2;
174      :    E367F119692689EEB2391D7E8FFF;
175      :    69F5721D4CF8B44B65595C350AB6;
176      :    755964C3DC9185CF56122148B263;
177      :    FF87E866AA74996BD488C696DCFA;
178      :    5B6B7A04D646BC736498EE076BBB;
179      :    DC83DA14BFF584EC453D8623FDE9;
180      :    EEC1A750420A17A321067C5D723E;
181      :    297F9C14A67F03D20F6452EFFE2A;
182      :    628CE75F9E3D0DFEFF2B17E3BF9E;
183      :    A0C866731FBB0554C6E0A521A1CA;
184      :    651E0C4F1D1384F560BAE668004C;
185      :    9EA608669E21BF08C86906DECA60;
186      :    214F7DAD3E16D7F9781AF7CDDBCE;
187      :    A7F76926C39DC28E3A0FCFD25FBC;
188      :    A3688A22F00E52331919AF444FE7;
189      :    920C8BCB9003F3C93ABFB559837D;
190      :    FFD18734576F05A3152E9E3BE7A7;
191      :    937138AF840293AF36C30913E1BA;
192      :    E158813718D78DA9AA15C5A9DACC;
193      :    4151B96EE68F118F0307E3877F06;
194      :    F75CFBCFE757C1772AD3D9839B5D;
195      :    48421F064D23A83017C205C2115A;
196      :    C8B240872C168DE9912C067E0888;
197      :    5AE2EF7FBA1E9D6EF7BCF7B3C1AF;
198      :    94998CA155270B1853778F6F05;
199      :    5BF33F117FE914CA8575A6ADAE36;
200      :    95B0E5ED90B10ACD33A1D809084B;
201      :    29BEAE4BFDBB1D0D77FDC02576D0;
202      :    A4CB23CD6F7E4A12DF13904F7BA4;
203      :    3845202B3F800698601C8C859D8;
204      :    5AC0F951A7080EE68CCD92A7FD7E;
205      :    82ACF918D0F899FCFE915CAF174D;
206      :    BD617C60FC4C36F4D312041437CE;
207      :    9EDF62E0E9CB184BD7A264B164EA;
208      :    59FE0BBDFC55BFE41F5BB55A8C6E;
209      :    1EF0544A8C39A0455740516280BC;
210      :    975E8EEF7E59CBDDFFBDFFF4F0F4;
211      :    DD82CDC24736CB10FF3E9F77DEAD;
212      :    B6EFFB56FE91E4F9D75EEF5CA1FD;
213      :    C10A9C70C84235B0745B88D1EDB1;
214      :    634384284885320212842A70484A;
215      :    FA490000C04421E1114D00040D13;
216      :    17677A4EDF80D4D0EB9AB1D4F2F7;
217      :    D61BBB1B911CCB40562E1D6B718D;
218      :    BF72F9CFEAE1D4577F101D763F2D;
219      :    40203448A5042404C6400A6C0240;
220      :    8748970A34C3322A620086400D4A;
221      :    B1E7B974517A2EDA9E2EC3A247BA;
222      :    A08CF0D4402F0760A2686B18B1A3;
223      :    27CA0CC77CDD72E3F8B9DA3D62AF;
224      :    EEE7FBC5AFD7B9649F2ACE93F9D9;
225      :    B32DA558D48416A19F2173AB2AB2;
226      :    8038B2EFBC07429F5AB1849D3EBF;
227      :    48CA6A0EA0E690FCB25A77FFEF34;
228      :    C62EB1359C4CBAC4FCFA665C879D;
229      :    ECA561A3AA12EE8D44694E6EC3DE;
230      :    FDF3F848C20623C2800282165E41;
231      :    D3A86E3D35B259CCA77A54BA61F6;
232      :    971458E8C90FCA49C08D0BD80D6C;
233      :    575CF083430F73977A83BFDE5FE1;
234      :    2BF7DE9A45759DA6E20A9CB7EE73;
235      :    6DD4640FB6F71DCA41E8429B36AA;
236      :    E0B474B31DA362DAC20001A50192;
237      :    9FB5A0634E2E56B7DB7379147692;
238      :    83CBC8CBF5412F63749AA6C1E36;
239      :    BAB75DF5B6FCBEBEDFDA797DC9BF;
240      :    AB957B09AEB01AACABB4C4010BF1;
241      :    936CA2D5287F99A9BDF0775F5ED5;
242      :    49231BFA0C2481EC15394B59A5;
243      :    C24C29C6C6A40CA71F9ED7FFAD28;
244      :    817B19CD6EE237961D74B7B77F0D;
245      :    8E30BD93201D1AA2DB2A43EBA6BC;
246      :    689C688C8486AA888C58020DA092;
247      :    EDDB589D9D83AE045C6816C86DA1;
248      :    2DCF7E0FD8E4AADDF6E0775278DB;
249      :    F602A22FC547F3AD5AC52F36C62E;
250      :    D743A6984145D23509002F94C769;
251      :    89EA590CEFF35676BF0FAF94D7BE;
252      :    86BE989C16315F2C0A06D7F1D795;
253      :    862C0808B1335322007E5E9C4401;
254      :    364985AE6583C33A120B2AD65F47;
255      :    AFA2E8FEDB6C5CFCE47BED8271F7;
256      :    35425F2DD4C6E85A8F59D06B0976;
257      :    357C0769B6F3FD1D75BF78E52C67;
258      :    774977F776C2BBF57BA1A0275AC3;
259      :    1AF8C2D0D7951686C8183EA6EE17;
260      :    5255E218220C26165D6AB2F84084;
261      :    9A06406199D21E82DDEC375F6032;
262      :    8C8EFA5AA140A16985D91E6BB8BC;
263      :    B47C4A51F149746C24E7A02D6CF4;
264      :    F4E7F6E37E6AFB71FCEDAD7691F3;
265      :    D0275E6F9A0BEFD5778235BFFF8F;
266      :    BDD43BFAEA31F9F6FF782319B9D7;
267      :    D662B6B06F4F1B316890AA989337;
268      :    D62EF4E5B42F748551A1F070ADF2;
269      :    11C651F44D1A9FF6119FFC885E;
270      :    6F218065226A0B433151BCB40A01;
271      :    BC4AF48331DF7A24FDAD5979AF9D;
272      :    B349A62723C750B311BC923C96C4;
273      :    C1C04251A83653238D328579947;
274      :    3A0D847200BE4C081084E125BA02;
275      :    DA31D65036E97C7C63B53304B343;
276      :    9884B68F977061AC244AC5C9DB0A;
277      :    8E28C796BFD035709D833A4C0F41;
278      :    3A2C278474BA30000E48D56071C0;
279      :    121081F5977CA4415D0C15809192;
280      :    FDC70BC41131FCA95CEFB708ECEE;
281      :    D7882BB21D1DD24438FFCE834EEB;
282      :    76CE268E735ACC87066586AB6DDA;
283      :    770D82B402E66939489A6F50A565;
284      :    7E15622277335C313714DEC8744B;
285      :    807C243B16826410800081304540;
286      :    A15F94CA7ECA82A570BD88DC6B43;
287      :    87C977C568A363D77C41964B65A;
288      :    C07CBA0EB63098673F69B2734CA1;
289      :    215C272BDED26442578070263472;
290      :    CA0D6DF33C92A7CDDB0D71FA22C1;
291      :    65F036F0734460512C804520B082;
292      :    FCB2EAA4F878F3C0CC3ACF1E82DF;
293      :    FFFA2F2C28F5C3055C3F6E9EC07F;
294      :    F332EF28350AC737328AA9FC6169;
295      :    1657846367A854253BA5FDF6560A;
296      :    915B3453DF7D76B9F4A6F93CB252;
297      :    2F83E430CB002351C1508F251481;
298      :    FAD78C5FA7B0BDCC986FE66D7FED;
299      :    54FFC97C3318AD6CE7C2FDBBB13F;
300      :    FF67E2E77B6FF3F676AFBFB63E6E;
301      :    8B6B165975CAC0775721D9B56330;
302      :    256730B57145023AD6109D66AF24;
303      :    B3CB5E7D78F8AEF2BB856C75AF67;
304      :    1CBD70ABB832ECBC7F41466FFABD;
305      :    4BE5E31883DD88CA040056A97A4B;
306      :    68FE6759F46AC84ABDE0566820E0;
307      :    9BA4F12C0D87AE0C1142206E2A;
308      :    EA9E588752ADA4CFF9746623419A;
309      :    976DA59F7C7B578D1A2ADFBC8DBC;
310      :    F685EB35C397AFCD287DC4DE57FE;
311      :    F7DA729B9FDFF06A04EAAEB3F4A3;
312      :    6462DA35D5BC296E965AE4A3E528;
313      :    AC5726635057210B13CD2E2E6E48;
314      :    61492200D4074873809001534E33;
315      :    54DD5FE4B8D5EB7D7CDC6DF10C53;
316      :    C72379372B0F8C5F63AE65221F1B;
317      :    CCDA1C295141C796C9B7A67C081A;
318      :    D623FFFEE939C970EE4AEF8FD968;
319      :    7CC6AFA75FAC6C7A17EEA5D8FDC2;
320      :    EDFE7EF81592CF3925E7CB7DCC43;
321      :    7F387425108DFA551FBC307DBF57;
322      :    2AB25415F48120CA007C22038C03;
323      :    AB4A671B79028901BDD8259AA24;
324      :    76B6D9D890F9A80F8454832B2123;
325      :    47E10889D902929044ED52B4881;
326      :    62DB7EA8B9E320587C10B6AD62E3;
327      :    F753E30AE75C77133218EEDE1D5D;
328      :    B1621B0B631A561D47F9EC36FFDF;
329      :    974D771F470A14457383F0DCBB24;
330      :    AF79C5E0BE5D16E476963D14DF40;
331      :    DFA1FBD2D63D2A52FD12B77EF17F;
332      :    CE32BBC28A20983D69D15D09D48C;
333      :    528477BF7A269EF1BF71FF9833E;
334      :    B02FF7BFECB301FB8B39FCC50FA4;
335      :    B8823E43F221A57CFA45EA7D3933;
336      :    8474D487EC40346C1478684A8605;
337      :    7D6AC25C74A18548BC445D18E683;
338      :    F746C5EA454781043802530782CD;
339      :    F769863DD62C5FC33BBC8B3231F3;
340      :    D603D8E72A3A4B735FB1EB665A68;
341      :    604C965AD7A11937F781A1383C72;
342      :    6EAAFF7CF57E9566C57FCFDBC7BE;
343      :    DB8BD934A43DBFFE8C7FCFABCFF9;
344      :    6F92DDA69F78FEFA9D9FEBBEFBBF;
345      :    81B93CA554CEA28EDBA439758E80;
346      :    B6AD28FFCFF3BF554B8BB5BC830;
347      :    D77F2E405AFE3A3EDFBF9D65DCF4;
348      :    C5AA169CD93583266C621A694516;
349      :    62FA1638A5F3A46E004802CD662A;
350      :    9CD39F30A12CA22A4C41083F4002;
351      :    1278C93454A91AE2A4B2500487F2;
352      :    802C21B578C3AA7810B82A114C74;
353      :    71E0BAC26E4F57B9F555A93D1D42;
354      :    4A85F10D8B72013693BAF10691B5;
355      :    F2112B92414D5747A15BC184EF5C;
356      :    F0F4E79D41EDEBE4FA22F226F599;
357      :    A267C54DB4B302EAE734570BC891;
358      :    61FF438DE8F10889A4387E81E614;
359      :    2B9C5576B2B0A0CFD70953612E9F;
360      :    1C725FA7A028C4E67092B1A8FB;
361      :    31C569986B221CDBB706254B0C1;
362      :    8257540BA78401D3593526870A4A;
363      :    1AC61214A840E4B169C10F168C9B;
364      :    CA4844104D53E038482E63ECFB68;
365      :    6EB5600430436746445947078097;
366      :    7260F1FB068D8EFDF9DAED1CE4B2;
367      :    713B564A8EE6FB657BA5351F9AC0;
368      :    9781D64AB37D5BD77FA4F884BE74;
369      :    F3E1F760756C5B36A38AAF367D72;
370      :    8DCE7465DEA104C4CF3943796CB0;
371      :    DDEAD30FA1F7FB6CEAD9EF1BCFD4;
372      :    4249A44166074446DB81204638D3;
373      :    97B0D48BB6F6B7A77FFF6A5B0ED1;
374      :    E229F02920474BDC13FB39920FF6;
375      :    72B2D1D941BE996AC40BDA4B64B4;
376      :    E13E0729528689BF058256D37D88;
377      :    498F1D5C9EA3EDDEF7B41428A3B5;
378      :    ABDFE005DEBE0C6A124DB407FA3A;
379      :    51C51AAB0B033C71899D66D8EBC;
380      :    E263E2236C6A9E73BB315E161E05;
381      :    296705573F17509BC44B96A36B;
382      :    72DCDD5D9E103B74EED675279D72;
383      :    806C6595DCD25F7F43B37BB82F61;
384      :    ACB5FF6B6304E8B5FFB32B919B9F;
385      :    AA63FABEDC45497EDF1AF9354999;
386      :    4A1A912CB504108E86405248A89C;
387      :    C5F3FC9A760D970EA21C47E87FEE;
388      :    D75CD2B915BDF3B63B764DB0E7B2;
389      :    A563931A415B1332325BB33CBC2E;
390      :    8F0121C84F71F392BB5BBE205B53;
391      :    E440C9037AB155E674DB3A2E5AD;
392      :    44DC628C7F8B264821DA30BE3B54;
393      :    8AD20F1552B0A99D7B9C262D700A;
394      :    B8E840304492F3D1A901626CDA53;
395      :    FAC4CA2A88BDB9ACE7C5BDB3EE51;
396      :    B220BB7225691EE389588C4E4E49;
397      :    20B783F906F86920802E5B382F01;
398      :    2897490D8129A862E459456BE29E;
399      :    555F429D5ABA6D9DBF83513D565F;
400      :    D6666E01592230790E00E95D1605;
401      :    850570F5364B51FF48B34D3C5625;
402      :    C766EABE08D3977B7E192E9A70CF;
403      :    3F6A6E5E571713DD6783D4BA5D52;
404      :    951DFD975E86F4DF7B38D1BEF8D3;
405      :    5BC0026C408E021274680024A0A0;
406      :    EF60B051B14E9880192D307CC534;
407      :    DCA9A8C1494DF2D2DF12AD465588;
408      :    429F38B1C3DB55E60ACEA9E94DCA;
409      :    9FD1CF36013ED36A10EEB2C02F35;
410      :    5688AA01A24E475B7AC7335C06F3;
411      :    2D0945DBC6BF78DDF33F95E178DC;
412      :    18BF46FF1E3FFE3F67FE79E27630;
413      :    BD0AF9EB28F7DE4DFEF7D16ACFD9;
414      :    9028F913137EBA502228A5395912;
415      :    883FB305B4D84B844B7847ED41AD;
416      :    832F59C6EB8FF8357BBB2D8B4FE8;
417      :    6F2268D64409D92C81C0A6BA035B;
418      :    61050E3EC09E8D8D69494D6828AB;
419      :    E76962B7E84F104F6437462AE692;
420      :    615E00664507425A830BB2A0EE06;
421      :    757EAFABF792D7D2332E43906C8B;
422      :    7415047234712674211A6985A82;
423      :    3E739F61740643055E8219321FC4;
424      :    56DA149E5CF71AA1732AC0E5381;
425      :    C671A3C2454D53B538D17BD64F61;
426      :    A5D860FCDA645EE90924397CBE43;
427      :    64A046644870EA40C6F474E92462;
428      :    C98CC4B99890AC4D65F0186D20DB;
429      :    EF9D139B2979B7076465F3AEF10C;
430      :    1EFDF38E83151D4CEEA3B64EBBD7;
431      :    44DF639797F50C868A21F3ABF1F4;
432      :    FC756FDA8FB0AC8F41BEF781D43C;
433      :    8456C18EAAF35DDDBBA751679EDC;
434      :    E577E9E64E43D373713B6F045E0C;
435      :    27D3B3E8634D24428102A2B47500;
436      :    10C37190182410C6002C789E5CE;
437      :    A56856035102F811200102444940;
438      :    65ADF2DAFF01D0177CD1A68975A7;
439      :    57FBF9C00A57FBA6FB4C0F9CD3B7;
440      :    9FA399806A17976244001EA9A0DE;
441      :    2BF7B5E77AEE6B280CB250358546;
442      :    6B1906B9D0C635FB4F019A698C96;
443      :    90608207730E73B919A536369C70;
444      :    BA002252432852A20B0718031407;
445      :    90A4A7C383B823B18ED1F9A15145;
446      :    E3999F8776F64BBBBBFB7B4CAFBD;
447      :    E7FE39BCE4E91BCCA138464D2CD3;
448      :    6B8433D56BA129808FC3A6135642;
449      :    A53415B5FCD22E4A8460D5E3208F;
450      :    20595DBBC6C25A6820840E72091;
451      :    E67FA61C4BA5900AB918D4062E54;
452      :    402587001593039E8532E02C8883;
453      :    89B1C813EB8A098DA6444682280;
454      :    D3D3C2840E972B41D4196796167A;
455      :    F9DF9D09D7BD00C6813CE4E47CB3;
456      :    D7D88BAAA5AF448829B4EDC8A587;
457      :    7365D34EFB69209D2F9221A4BB82;
458      :    52F43F4FEB8705DDA397E389DBA2;
459      :    BAA7CBCFEB346BFD7DBBFBF7F999;
460      :    BF998CD10D8C1083ED59081F7A02;
461      :    32141718A210053A2093A92D9404;
462      :    328C1A2104B03E0A9BB550972002;
463      :    9DB2548EC6005810560434D6A58;
464      :    E9D502C128C0009AC934348A3805;
465      :    A9ECA05E410D2E41804186832C6A;
466      :    BED7375887FDEA2F67CA8DCA576A;
467      :    F1E2F1FFFA46949467FAE6927FF7;
468      :    ED9D747BBBB8B95B71F5F6EBDD6B;
469      :    69DD4D6F66878CDDB637644FCCCF;
470      :    ADD5DDA55433BC6B95128395B542;
471      :    3461C0BD83835002F953948CA826;
472      :    874021097C42640A7454D0488B30;
473      :    7A50722048D61033141538F40827;
474      :    EB2D34B1208E25756E2A52AF109;
475      :    647AC9827B1857D73793E380528F;
476      :    B2D74646210521E31F1F8CE49C31;
477      :    923DAC2A34AE028C862441CD6080;
478      :    D71C30CFE0F223F62DB10B032E02;
479      :    F735A3266B4F53733B3B0E9E5E67;
480      :    80AC89D52E6045BA8F205B431897;
481      :    B30229579ED10BAA95394A09EEC4;
482      :    E17C9FDE5FFBB98BBFD436CF4C61;
483      :    D1AB53F84A5A0CDEF77944BB9D9;
484      :    E5A4D30D2845393A46915980175E;
485      :    C62B5DC45C01475FFC2BFE33CF4;
486      :    4114350040851500A448025F811C;
487      :    3D343FCBA856C13536B720448905;
488      :    BA21D19FAFFFC3F6EDBBEF76AFBB;
489      :    51319020A242C1283C5A1A021303;
490      :    4507B81AC9EACA2322A3DD102D4E;
491      :    522555777E52FDFBEB914096BF9C;
492      :    FB6D36E4D6471AA0A3B008B06652;
493      :    33C4E7AFEEB1EC9D5CD7138CC73;
494      :    BA1F3F4FBEFC9CB9F71ED5E9F935;
495      :    D3B9B314985F26E70074DED66ECE;
496      :    D66BF17BAD5F968795DFBFC7CFBC;
497      :    31A1265F517F9DFF9BAFE0A473FE;
498      :    69803D36C6FE25EF97FFF2453A57;
499      :    2F863BF6B9F0B67FADD1263CAD6;
500      :    7BF37E58DEFAAE9AD74E5071F6D1;
501      :    441651C918E435DD5A8369482100;
502      :    522099A10908FA0020BA07924148;
503      :    12B0E2A46942103A2000A9843701;
504      :    98D8378341084709958188691801;
505      :    FCF1C90A8B8CD17327D32BBE7B44;
506      :    2BC4060842C800FBFFC13909DF32;
507      :    2294809FA2D0318E97254A475EC8;
508      :    93EDFF86CB57473EDBD7BB969F3D;
509      :    EC6DE4DCFECA17CCC7A771EEBAC1;
510      :    94B8509388B59F44AEF67C9FA318;
511      :    6BDEE9D8C1A9A852A449D4E37EFB;
512      :    8DFC45139CA0685D86A7F4E968C2;
513      :    819D61C205A534080E04F087FAA0;
514      :    8776FB8875F8A6362ED3C86EE74E;
515      :    85D0F98845085010A413A01FD219;
516      :    28B8A00DAC960418EF1054EA02C4;
517      :    A8D79F0D2AC78047D7B8578A789B;
518      :    2070365054A49EFB65395CEE393A;
519      :    DFA3FB57AB5F1AA7B7B9C485F7F6;
520      :    83D6E92F6BE753F51F5F7D109EAE;
521      :    A289E815C43C4EC39D285A7592B0;
522      :    441354DC858124464F028123F123;
523      :    285DD1C7A154DDAD33FEFEC8112D;
524      :    6DCE50FACE3844416DD7B495740E;
525      :    965B64708DD5E3622350C00E1AEC;
526      :    B420538492DB56334A418DCC0EC9;
527      :    9AE3FEC06B5F5E22631EF796FF68;
528      :    DEB9126F2C3BFDE0D9BD5D57E839;
529      :    9812045047FC183CF7A8A0188172;
530      :    74484AE3ED13C1935DB53F7F9E0D;
531      :    478FA5348C4A292AE012564787A9;
532      :    1C8EE20B1A00A3F0846EEEF152A9;
533      :    C8967147B490608EC54023ABB051;
534      :    D3E1E2B7EB0F423B7A9E3CF5BF34;
535      :    7C0646D31FDA44F3FF60F48DF6B9;
536      :    9932BE606D0305A8500FDC1D406A;
537      :    752EFB95A85F91C5319FE63E0FAD;
538      :    FFC65BFE413D8EC6C376E4C9F1BE;
539      :    4E5640C88AB49951CB8DC72B1CE9;
540      :    762A2966B4BD3B0960D9F349BFD;
541      :    ABCE671E5F591A56AF8064BAFA96;
542      :    4F5E1FFF95F4A1A5E25FD82B99BF;
543      :    6B69F767278DF735FFC33BE39BC5;
544      :    B90129748B25FA3E91BA7925F75C;
545      :    5AAD357A30F8D87C6A120961F15A;
546      :    847C11806282A32A74815E697A8A;
547      :    63618804DB850A7386981EC2188A;
548      :    847041CC5030512840180B3408F;
549      :    97E191EAAB4797BFB28E9B185FF4;
550      :    D6BAF11D332D97B6135E5BA6D3AE;
551      :    97A3A5DEAD4FB2F9214D5B1ACEBC;
552      :    480D770708CBEAEFC398A53BBF58;
553      :    5774797362D34FE252C3AB721B10;
554      :    21486478468358DF079333271EA1;
555      :    8BAC099583995BCA806DCE8A4489;
556      :    461C2D941CA8AC948BA3422B0891;
557      :    CCA20FD7AF7DE3B1C86BEBFA744B;
558      :    A49A7FAFD442F4C9C77A0527915B;
559      :    58E5BCB434EC3E2680108FE10B0E;
560      :    48B8510DA8D32FEC837047AA0198;
561      :    ED442BBD711F55F4E836EFD8259A;
562      :    7361635E1873CDA3039898BEBF69;
563      :    D2A0ED2D6A6F1BB1A9655DDACE93;
564      :    A92C417356DF5B62892953442092;
565      :    8D774D1F5FBF5FFC5B7CFCA8FC8E;
566      :    602C858D44FA59642A78420200BE;
567      :    1AD8CB8BC7F84C8299FFF29AF33C;
568      :    AEE99BF04BFC168AF99F9F3FBF3E;
569      :    BA41210ACBD512B331D77162E914;
570      :    298740507092AC8EDD24D26D289B;
571      :    FF837089A0858E89990DA6AE2AB2;
572      :    2299120C8090860A8740024D22E1;
573      :    A6BA9AE07B5040154C0285D5530B;
574      :    2552096A6B09E6196F9DA586956F;
575      :    ED5BB176214EE0A5F987A2038CB6;
576      :    6CA869AAC726879330164D3B8F;
577      :    708E47E5D0B18C7BD77470352367;
578      :    8A9A67FD3C4EAACF3B1956CEA1F1;
579      :    C7A3F495F939C8EEBAB8EDF07491;
580      :    B581FC65EA6DFB62F54C2D0481BA;
581      :    960372DE7E59E67754C7670B319D;
582      :    7369B409562B5FEE1844BA78B2F2;
583      :    B20196E12DC71A28DB1A2B582EE7;
584      :    323C963B16AA7E5B138C30F8B242;
585      :    D9C65B99811B4C8C94640692097;
586      :    C9A709D01B538C8A65E430B05B2;
587      :    58B47ACD917238411C75D2014AE0;
588      :    FCE2BF32233C57A422A3ECB34565;
589      :    D602CF473E7F27316740AB92D58F;
590      :    5041496822DA61012143DCAE1357;
591      :    56874ED5FCF56DD5BB231541E14;
592      :    826CB7E57F8D22BF593433D49F51;
593      :    9769B5E33F8DF4B53BE4B9EB5301;
594      :    77A5A4FC544F5372490ABF36D073;
595      :    64CECDD9B76DFDBE9FF7DBEA76C9;
596      :    97B0D5B66DF3FB4DEEB9FD338CED;
597      :    2969A0F85E4B9B3F111D7BB1308B;
598      :    8B7C0F15456B6E2C1EBA19F56005;
599      :    517C404B10828C7331BD593B0C0A;
600      :    3EBDC3D42230EAE5B88B537EDEBF;
601      :    722501B24374867BA1E06B0E1B03;
602      :    18D449F410BB640587E240E8E0C8;
603      :    F77AE6B4601F32C158CC3E5A46AE;
604      :    AEBF3DC42517B530D6076F44CF43;
605      :    EFB1FE22D37D7C467BC8C7A774FE;
606      :    5305412C4AC40366009C729967CD;
607      :    584CA308C2B28B2E4424F971A815;
608      :    D749602E6E4F83F3180F80064F4F;
609      :    DAFCD9D1ADF74ED5BADF5F490FC;
610      :    60BC26589AA044D71FD087611497;
611      :    1EBC4FA72CD672B55BAD387E0C4A;
612      :    B7541B90A0D345CC382A469FC8C5;
613      :    67699311437F412A2502AC1A95A1;
614      :    E65DA4C014843288201018208E92;
615      :    142400C39AE0B89B652D183D7832;
616      :    3F3890759EE8DA112B81B9681067;
617      :    73EE5438684CC45F99D517854BC;
618      :    3777489963359B5EAA51B383776E;
619      :    14BF398E21E6623C3E929BCBDBB5;
620      :    CFE3A39FE3F10EBAFFD797B3FFBC;
621      :    73FF85822CFE6DFCB2527DEF9FC;
622      :    201B0F59848034AEC21B94F99BB4;
623      :    D60C89020CCC93AD23180529010C;
624      :    4F0A695987B8F5F46361CEABD6D9;
625      :    6C5E619C2C034534C60A15FD01B6;
626      :    342A1B02ABC3E20C7703A4F65188;
627      :    B763B4F15F4FD3D37BA2AB7406F2;
628      :    9776A2C6E34FFFD27F9BDB02A8E5;
629      :    B0502231C80C42306C67A2246901;
630      :    5FC1BFB59952DFE981DA6F05A7C2;
631      :    9B8DC2A7485BB8EBA63A593ACE4F;
632      :    EBB35D2719738AECE710C835BCDB;
633      :    28459520651225A23A9BABD4A148;
634      :    1453C66763CED3E54B8BBF35DD1C;
635      :    97777EC26DC7D3376017D796DE62;
636      :    8DC24A994A92D2480A5106C2800;
637      :    8D9C6C8DDCB03E0B55AC106BA466;
638      :    B9D441D50B86FACBB7C5C4DA200;
639      :    6FFF39DD4B77B58EEFFFD73EDBFB;
640      :    6ED67C1D82D9A4E4C67A63CB41B8;
641      :    59D41B58354ADCFF68FDA89789D;
642      :    234D52084AD7035ABD49D0459C64;
643      :    E49D2B688E6B0699CE19A079AAB1;
644      :    C110611CECDE234694394EAD588A;
645      :    3BEAE8504A3089C0C3E8740090F9;
646      :    6F4AFC40F880AC754C010E718435;
647      :    A326F155F395FB3C7AED2B5C5BA8;
648      :    FAF3C67D9F5EEE67C11FB915F1AE;
649      :    58854A37847EB879963D0C7C8CF1;
650      :    5CCADE5A765695E0554C2DF03168;
651      :    69CB3CF0FF7BCD33F1CEFFF0713E;
652      :    9C9364F73FB0DDF998EB734AFBC3;
653      :    5B9E06948EFF13B3AF62F883E6BC;
654      :    BAFAD5B82F41723405C9E9D796D3;
655      :    6A043A0E9072E90916BEC92D050B;
656      :    AB6DC4699FA63B59012CF9551512;
657      :    329C8BB8F075440884021AA5513A;
658      :    A49528A7F2B249FDD96B63EF503B;
659      :    764521027A8F23F6245F62061E37;
660      :    6CCE4F5E5D636CC683685003F1BA;
661      :    5DE4E0D64B23C482E37D6334C03;
662      :    E3BCABE778FDDAF1EB185F1E5E77;
663      :    8B50B15FB76F1CB1EB7F7CB6AFF6;
664      :    A2352D469510081F9FDF88F899CE;
665      :    275435477FC4AE3B2B9390891961;
666      :    879E31EBA9D1FCCEACFBDE9F7FEF;
667      :    B33F3EF1D629288FEFE7F5E959E2;
668      :    2CFE518BF2F2E82FACD0D82D610E;
669      :    D614F35CCC86457F4417CF7F2BB4;
670      :    A543DAECFECDC54A46012B360A01;
671      :    622991C8944F4044C42AAF8CD89;
672      :    9000E03B2D59F7947CFDEA601861;
673      :    A74985CCCD453D613B8228100C71;
674      :    D462A481B24277316E672B423A21;
675      :    5BADD9C59034898D5658541320C5;
676      :    2D9E81675030F86900C7714F4046;
677      :    BB31D06178FB6B204D3DCBC056E7;
678      :    AFDBB330650F1712002E2154466F;
679      :    8CDF5AD07580EA427CECE4032349;
680      :    A10B425E43320C421110B0499C0A;
681      :    B59D10DB9A18ECD73475D97118F0;
682      :    6FC70EC30BDDCFB1F95891D5F936;
683      :    1F31123A4888F59DFDCC0D12050A;
684      :    29CF549A87861242865F12438F34;
685      :    55D0E70D091152E10695029436F;
686      :    414B206C9083010B78E9B6243463;
687      :    7DFEAC713E21FEC5DFAC2E2CFCB8;
688      :    F9A8ABBD3E8C27005AB7F5E1CC64;
689      :    F773DA8059A9F362246E2DD4456B;
690      :    DF22DF8529175BE0446F8F49486B;
691      :    F397FE7507FACACA3CCFE93E42F6;
692      :    1AD0FE166F05047E11A7A99CD264;
693      :    DFBA7BDDA13DABC4CDDEC2A3E7F5;
694      :    8ED2B280E9FE9B6C84DB9B494B6C;
695      :    9C829CE4835DD4F65DCFEF8D326D;
696      :    C7637AFC6A43DA977E3121541F51;
697      :    C62378718E0A0B745DB959361B35;
698      :    87E71AA8AADBBCB3DE78D4FF67BD;
699      :    A1E627087CBA2D0C2541D5686B08;
700      :    A0BC59D885E6FEAE67C01DD70812;
701      :    36912AB818B2AC73EB2355B9BED;
702      :    FF027643217BACD1DF6FAB57CDFF;
703      :    7649B240F31FEA5A7C46AB346D7E;
704      :    2E07CCDB97944418DD8491A1E236;
705      :    54C1AA7DF60F0BF352DF78558BEF;
706      :    DF4715210F715F350C7FA3435987;
707      :    DD685A82E33FD1117CDB13DED9F5;
708      :    68DE7D6CD4EBAC7FF74C8CD0F4DB;
709      :    49BFCDFF7CBDB86D59E57A649ECD;
710      :    689E6E7C54F9AEAFF5C5B0F9A652;
711      :    6DD057FE5F816111E2B2937CD383;
712      :    79E31B32D1315C802CF7F023EB05;
713      :    B1D928827180D3E1BADFAA084F7F;
714      :    8516487422464694775104C0334;
715      :    F0A0F06393A0FDF420162010A7EA;
716      :    3C4A73E92CB17F25A08353028A9B;
717      :    8C3AC78EB4DCE6E8BC7158092A95;
718      :    43E67E5476791A62827ECCF0E1B9;
719      :    7DA0EAB47975FB25209756114D5A;
720      :    2CDA3E145630BD35BBC5A070ED07;
721      :    7C1BD5CEEA14F9557DB9B9F1CD39;
722      :    FB69AE7B7E69DE737BB4BCF7BD7B;
723      :    BB92E18DF491422C55FFEEBA5B5;
724      :    E699AA3C61BF8B0A146F06BAAA2B;
725      :    3C5E647F57164CDAC14EC1FCF1BF;
726      :    F26244B427194E12105981D04033;
727      :    F8199C4975CC4C94FFAE897E05E7;
728      :    ED635460BDC966B00920BBBA9984;
729      :    3F9D3A5D8D8C6EA1733D3BC3A8F0;
730      :    3A4985F61A5AD3973F96C8ED1B8;
731      :    3FB20ED42A10DF191BB61BD624A9;
732      :    D73AFA4D8A1DF261C4AACFD9C2FB;
733      :    EFAAF6FE0C7D9969FAEADE1EB3BD;
734      :    7EF51C79E5BE8CCDFECAD6E76186;
735      :    B36394E074414A323AD83A58B647;
736      :    D3708209140A14A113EC18642470;
737      :    340210A2AF44600552438902D140;
738      :    5C2F5D25DEBFB59D34D6A460B9FF;
739      :    FFA3447E153FFCD93D5C4223A0F3;
740      :    EFD0C7AB409F17ED78756B2987D3;
741      :    E9FE6713E7F3F9CA973AB15DDCE6;
742      :    FEDDA4E26EBECF1329BFBBD45F0F;
743      :    ECDC2FFA38F24A978925E317D552;
744      :    1219447C1B3034506C2C657CE125;
745      :    33D69F381C20A80CA4E786C209CA;
746      :    9F789D8CC4C150A68C688DC1E0A6;
747      :    45D752B168C303D7A27695E1120;
748      :    55749076B9BF3177497FA925D0D;
749      :    6B5C5C13540281162E11826AE122;
750      :    1C9D598A98B5E0C7BC65D28AD60D;
751      :    F5F6A30F6AFFDABFBDBDF9A7DF5B;
752      :    2A452C349B98268295901A27B99E;
753      :    E7B0E828DFFEEAF34C278CA7FB6B;
754      :    C8DCB90C8050A1828C2C8697AE4B;
755      :    C844324A98B40900CD5D204303DE;
756      :    F7E16661444F97930BBDA6F60E63;
757      :    79CE4CFC5F328FC2D79080D7A486;
758      :    489E5C79D5A8ACA9D4CEA869E075;
759      :    6DFD4E6BF7B15E914C6A81699F43;
760      :    B855E06BF6C59393DD5FA887D06;
761      :    AF8FF5B3FF51FE7EFB7EAB3EE2B1;
762      :    BB2E9358053D960EB0CBD66AC530;
763      :    807D8736D4E01C511846905C25F4;
764      :    D7360DE551CCC778D17BFDD88745;
765      :    265F35C96743222E3E4310A30DAC;
766      :    8691E537EEC53D6E12DF7AA23F3F;
767      :    CB52D992592248284442A2331AE;
768      :    4CDB57941FBFEDF5468D2428E009;
769      :    BC1BDFAE601792E63A91465FCE9D;
770      :    20D5E6785F36246A0653CCA1F163;
771      :    92DB6E7AD77EFE72C04EAD6AE569;
772      :    9542DB0A3A7ADDD3F8114B2F9984;
773      :    F942545247787A1B1B00B1AEF6B8;
774      :    101C6E0079E0A8BD9F8919744448;
775      :    637F246808EA38BBDABC0DD1B895;
776      :    7374026C28CE716816232D550C7D;
777      :    FEB68B8098AD6928C47A8F924A3B;
778      :    C626FB36B101E8622C7EDCB37830;
779      :    DFFFDAE6AEB0EDDDFFB9CD578BBD;
780      :    9D63F6666DFA5E5999E99E44040E;
781      :    DCCF36D0BC7C0EC1D1A41A74E048;
782      :    6CFE3CA9A5F22CB09C4CD645C286;
783      :    C1B6B2F9EA34BEAF799A7CBD906C;
784      :    219E19F68454E84FD453D4F77968;
785      :    413C7C4A9E81AC59F788B5E13056;
786      :    F2A7EA08C34FFC72483FAED6CE21;
787      :    95877000CB2D746A565B0E770004;
788      :    86F5F4503D15F170CA6B9FF74B2C;
789      :    F1689469347088DCFDAC0C788673;
790      :    7029902154C9AB4C110508108821;
791      :    CE139615984191EA592920126A45;
792      :    A20982A972B4402C4A4329552242;
793      :    563922414FAC5F0E091212729805;
794      :    895D930142CA130EB7138B678C94;
795      :    BD8C1514F40BAD99A4594D3A90;
796      :    803EAB04B080B2988D2A4D48345C;
797      :    DA22A9435EA0AA2A9730BC29FAA5;
798      :    A79DB9DF88A1708CBF6787A1039A;
799      :    CFB09196AA0D1315AE4AC48A37CF;
800      :    A7E5E3FDCBE518F6A502D6B9308A;
801      :    7B7B8F6B7E3EAC8717D032B676C9;
802      :    AEAD05878A757AB55A973B758CBD;
803      :    E9F805515F4C2C1B37188AAD7442;
804      :    A9CB46744F0E66720A06A9947583;
805      :    EC9829E6AC7249068AFB468BC39F;
806      :    1C9A4140E0A448A010A310B9089;
807      :    A9DB6F1BFE62B296CF2FEB37BFDE;
808      :    5A5815246C9540CAE818E729249E;
809      :    ABE4617FD0EDA4C64FEF4227234C;
810      :    22AE633F9DB404CCE2385728A08F;
811      :    6825D72FAFEC31F7F4DB75ED6E5C;
812      :    8347C9AA7187492910461CC2C0C;
813      :    9443A9AAAF87930E0A348FA24A0A;
814      :    CDE125F6CF7444575723EEB27919;
815      :    2CC92C342A92E124CE4907620A80;
816      :    E1721A7B51450BDF39F92B481C46;
817      :    A41C35693F23DD1779A530249B56;
818      :    872089CB2A02D1995BB111124B8D;
819      :    633C977934AE08E9B32CAAE03882;
820      :    C499548D200570086811497A8011;
821      :    6EFB0AE0430F482A601BDB97FF47;
822      :    839E019DBB0826D6CE4E119CE49C;
823      :    99A0800126702E4FB2B85C0CA7FC;
824      :    B2258205FE4858B9B1BA1C1A168C;
825      :    C9854089DA703D46CCFD460FDE83;
826      :    F33FD3E5A16DBB2254344E974DEF;
827      :    6B96FC7891B9A506A606E4C66677;
828      :    2B0C7111E730A1828C4802AF608B;
829      :    79FDC83DB6131DCE35A26C25AAC;
830      :    6E82FAC691B8EB4E26DFA6B75162;
831      :    6542A26F6B620D7257019E843C43;
832      :    E14D17641ED2BEFBF39CE124341A;
833      :    8E744E05C830E190108240E7A03;
834      :    7BEB67A4627B32C395D012F41443;
835      :    C2E6DFE925DB21831AF4DA9FD297;
836      :    53D6F5E261456B7959771D324924;
837      :    3E9E2AA6A028E849C25F47CB423F;
838      :    2C5B5E8AB136E87485C3422F6241;
839      :    24D748CC9CE9E0512D9494A34012;
840      :    D762E2A0E01DD3607C342E1E2805;
841      :    94A2ACB5712F9B3911256B3C3633;
842      :    9E66EA475E57DEE1B97D2C76C6E4;
843      :    D13F86605CBC4EB86825FA7440F1;
844      :    FDCA8EE8577D5B9BF1CFB4F2B053;
845      :    94FCCEF557B90CCCA93CDE2AE1B0;
846      :    AC39D5B7BEEE7231FF5DFB3FB634;
847      :    6C660EADFFB704975709A323704A;
848      :    A4E8BFAA54F713292677664F0743;
849      :    5BA799FD37ADE560B77ED3E7BCD;
850      :    474D4EDD99BC0E72BE3EFABA42BF;
851      :    8288EC97D5B85EFA26B57310ADC9;
852      :    83359747B4D6B59E18BD761DE81C;
853      :    A378DFAAD14936DCC3858028BF1A;
854      :    8378938E2097138C8AFC57DD4E8C;
855      :    D37A2772D44A23983F908C2BB84A;
856      :    8416346020385358178C8F811;
857      :    F07333C65ACE5B3578333F1EBF4F;
858      :    13012388BA0E57AC134419009005;
859      :    B825AD5515B07FE686C059B4DADF;
860      :    A30D851D74129D6F933154E5AE88;
861      :    6535E3EBAEC7008E8A1506C28BEB;
862      :    2294703131D929C6C4005E21209E;
863      :    C82C500DB8B428EC8C6762A2CA91;
864      :    F6E01B0759250AB1383A5F05ACB;
865      :    87B4ADEF777FDBC8301FC7E16C06;
866      :    FBA1E39561497780019ACF9FBECB;
867      :    C10C8B11B4322B480E20402104C8;
868      :    2164319690D3982EAA9B4E692F5E;
869      :    317D85367F4F1BBA13B1D08D9C4D;
870      :    425FDDD573D0088A8ABFE2E34BB9;
871      :    E36DF19CBAC50C2AB78A4C071D93;
872      :    9BC741436AC109684351229B8CC;
873      :    C9C1C2BB8B4208FBC45806D6EA1;
874      :    F564BFBE716811D3E5FB6395CEF;
875      :    4D79B1426B15D1BF7ABFB1FD654E;
876      :    DAF3AF98806AD21B0448869D8169;
877      :    48E8A028802E0620C02988E12B19;
878      :    9890E8289919E56AE00C2A32A138;
879      :    A370F6EA5DCB88AB33A04938D0F2;
880      :    352294E37C8CD18970AFAFD25963;
881      :    D753CCD3F75A51D1DB81AFBA5F71;
882      :    4FDBAFE11D7FD4B51BE7AFFE0EC0;
883      :    9FAEE414C32486DAC76AD58DCEB4;
884      :    B99C3D909B1436024C42C1E3E50C;
885      :    ED67ED6371BBEB0678FBFAE2DBCA;
886      :    A365203577CD1BE2939CF84A31A7;
887      :    9F6176A314AF4F2DA1BBA174FA37;
888      :    FA2CB43061EE2EAED80F7A540DE4;
889      :    289CF00454842418938421271910;
890      :    C09BD6513484663C27F40E6DEF80;
891      :    6CD56FAD93F429C3CEEC47ABB43A;
892      :    735D6691D4ACE828313192FD247E;
893      :    8D5C021A94932CB5170008D924C2;
894      :    94A34C75BB3DCDF66FAEA77FBD3D;
895      :    7C107AC55714CDB1D93B433DE2BE;
896      :    F39B980CA359C06565FFAE9FC9BD;
897      :    3A62FB7A01579B1F00DA86934A0B;
898      :    FA1EC83B65D48203218D6AF8CC4E;
899      :    2BC36E607FF65D528085A617F464;
900      :    4905818A827ED0E7D6FE03A6BB1;
901      :    6AC826DD897F1C0718A6F6E1A9CB;
902      :    621E5A6CA187ED0F6AF2B6884D7E;
903      :    40850E050D2DB82EE0E3240B8DB8;
904      :    C9BE422B405B9FA32BBC465CA7A3;
905      :    DA336039A046F0A2FF3D6F59CAE8;
906      :    484F7C7F4F816CDDEBBAEDCDB1A4;
907      :    910FDCF534E9DE9D619EBD84F766;
908      :    1482DE45D4748C7971D4D40AE11B;
909      :    C059212AF0410282250050A6768A;
910      :    94A4658D0804626B82009AA10E02;
911      :    1C9F5F53B3C1BD3934833B3B73F;
912      :    2223F379BF7FB87203208CA175C2;
913      :    E43809A7089356ED5E5BE3244E1E;
914      :    A56E57FDFFFB67EAAC7FF5B875F2;
915      :    2055ACF05F7A95B463B327F2F5B5;
916      :    341AB10CB4DF53AC263D4E9F2E43;
917      :    F73FECDC3509058ECA0644E5E6A3;
918      :    665D3AF7F4BCF21D39B5FE478F6A;
919      :    8DFA7797E3B4DB79110EBE5F089;
920      :    8218A32789CDDA392A97B9580E32;
921      :    2441C38F9598E2452ACFC25E0A5C;
922      :    A880C49149304EB0953ED838B923;
923      :    B4108583B4947C480A174B0AC831;
924      :    EFC39B87FC34E5F57F3F5F1E9ADF;
925      :    1D1359D41218214605C2C3233F0B;
926      :    2A1CC0A0B070A909C849C20F480B;
927      :    B715C9E34D24722B691B5B2EDE96;
928      :    EBCF505A7829E4C6E42371378A2E;
929      :    2B1C381A90B0A80FA7D83081A09E;
930      :    A05CC62BECAB06457E3421082080;
931      :    C9448C72A80C051463391835A05;
932      :    B2444C2883E1067084421217CE6B;
933      :    A4D2FD4DB150CF44E00ECD83C98D;
934      :    EB60F9C6E9E9BA3FAF92F4985D67;
935      :    69EF60ECD6A520868C1430749A87;
936      :    F563FDFC4F79015259F999925F67;
937      :    22803B17E7095086608F91D54306;
938      :    E5780D53D54D590D761018738CA2;
939      :    190C6357F2B0AADF9FBF73E8E8F4;
940      :    465E899912A2D6FDCC825B4F90F4;
941      :    38242BF554B2AC698AD4791DEAB0;
942      :    7695BE7D273DBDF6EE4CCAA0D312;
943      :    8C3D95971550EE28EFF1C84E46C9;
944      :    C6F7FEB407EC0E0ECC0E80B8F18C;
945      :    65B5C0E6CB3DB0132873B3EA4F01;
946      :    682E66F8562D1168C1262EA07113;
947      :    88041C7B95F0240C84E089691151;
948      :    18CCFB2656FBFAF5AE9ADBFE6BF4;
949      :    9FBEBBA5AF6D13B3FF799AD274B7;
950      :    7C5795C5FB06F5EC451C48179A2;
951      :    D621E356466D7B91F391B7385726;
952      :    39A43315B1EAB81B10C400A9E5E3;
953      :    96DA1044AA042CC3902574CD7C5;
954      :    7502A1C989070185044387EB5399;
955      :    548E3F4A95302C3705238DE96988;
956      :    C3A09963B2495365AEE785FE08AC;
957      :    D0B5E086AA4F477314052FBE1E01;
958      :    E1476C6B8765EB06170016A35249;
959      :    651E2F81D2E0A1CEE7F8C4814008;
960      :    A1FC46F5D897F21C79A593D90260;
961      :    555C22A13BCF72C96B8F2B565E47;
962      :    1D839D962F6566FDF16488AA14DC;
963      :    5C966010FD3DA36A99D43E4B41FC;
964      :    FBB0DEB4916CBE6C10C9AA4824FD;
965      :    AEA6FDF4F025BF9CECC48F21F1B6;
966      :    735D277840EFDBBFF677B975BD57;
967      :    677F72EA5AAB573F4EF73D5D1BD7;
968      :    FFDB33E066CB9517DC937357BE7D;
969      :    CAB71630BA93A33C2740A2FBEF4B;
970      :    AC8F4DBC96756C60FC440EEE628A;
971      :    6DC20DB4F5B39B4C68ECC66B249B;
972      :    CC7CB07955C39A109DE4207E2446;
973      :    9E88FC6ED52488560D41BAF9F223;
974      :    5588C00B2494777F01EE007900E9;
975      :    BE82AAB9F173C5B7D8AC53F62DBB;
976      :    77B378E229DF716BFC13FEDE4F6B;
977      :    BED29E797BBCCDB0D7FCDB3AA23A;
978      :    FA68FF13E347E99DDEC68A9FCB1;
979      :    632C622B0439EB392CB978440A44;
980      :    9A4CE6315CA63ED5DB9CB820B0C5;
981      :    F2DDE43115BD06C71BFC193711E0;
982      :    28B1328D238C00801523114B9E91;
983      :    872113D20B7C024351F392D74345;
984      :    1084B5DA8918BC38166728DEDED;
985      :    2387055771A2BE8D8FE0584A7C3F;
986      :    716AA1D5DA84AADBB539B71A5A63;
987      :    8B3C6D5F55148482C51DC623B198;
988      :    EAA5DBBF814D519CBBCEA7C20CEC;
989      :    EBEBFA25519D91128526848069AE;
990      :    B969AAE3590445B1D21998158E62;
991      :    FB3D01755A030105000F730AB88A;
992      :    29FC2D0D34E200FFA6D94DCAAABB;
993      :    8C4C4A4FE94157B939378497AA52;
994      :    A74001DC1A56C2B4A81BEF36788F;
995      :    6AB63D769D316DECC77A15A1B5B2;
996      :    29DB1FCBB1F1B705A6FBD623C789;
997      :    106DA0935077F02E89B23A6A2D42;
998      :    26AD249033AE545AD85F59409A30;
999      :    42C67A22C1737B302E9BA349CD08;
1000      :    FD755FC753E45F5E5A3DE94C3BE;
1001      :    61DE4A7C847EAB084658122B8213;
1002      :    67090BA52B6B53115A97FB849D0F;
1003      :    504013486BD2C933AAD3AB429D96;
1004      :    1F52B2D863EED033199BB9161365;
1005      :    100C342234017A2C620039F80E94;
1006      :    8EC041485A148819CC400680040;
1007      :    4D5D00891E91E44C63C190272709;
1008      :    2104AE099B0BD2EA46E96892F48;
1009      :    A17F8CECDED06BCDDD085E630FFE;
1010      :    F53616D87CF71F0838090A4C6E4B;
1011      :    7766EF3A833F47F673A8EFF657BF;
1012      :    677B71FFF527ECCC37F7F5FDB5B4;
1013      :    F5D298DE2DA5C06D67BFF752BF7F;
1014      :    EDE2BAE1A4DF38409DE05E434E0D;
1015      :    9E23A981880538A20D0216C24A0D;
1016      :    308DC11FC10CB044654150B76824;


1017      :    26F84848B90727B81B8A9B946551;
1018      :    CF03180EF23F3F625F3F5D316B70;
1019      :    4F037AD7F6BA9A21D4ED88D2080C;
1020      :    6FFDB06BC37FBDD2C5FAC72A18D2;
1021      :    852F3A7BB3D63E4C27ECAE561D9C;
1022      :    594CA172CB1D1A2C203E419D23B9;
1023      :    106DA597C96C4ADE234481DE0BAD;
1024      :    850B0329BD924AA911D051C58A49;
1025      :    4148A42134A403B35E5459294391;
1026      :    C3D091EE8F6374B1D412F64D547;
1027      :    DC3DB812E835FE48448FA47F3D6B;
1028      :    490D1272E2A46B68945964533351;
1029      :    660F136EFCB6982815E1F3C59A7B;
1030      :    2E1F3328B5A42A000FD4FB39EF61;
1031      :    4A4C090380900248943E9D5AEF39;
1032      :    A26D2661C3BAFAFCE30E9C5B964D;
1033      :    F3EC7EF93BBACC5F73F78D0FE614;
1034      :    E22A18691B9882300814FF4377B3;
1035      :    1E4B42D74DC8454A20FAA6AAC0C7;
1036      :    1C13C8CB890925F2E0FB68E028B6;
1037      :    44F1E0C00A4E724AB4386484626C;
1038      :    6FB838BE02C972C4FF236A21B899;
1039      :    314A718E4981E0CF50407208B8C1;
1040      :    8970B785801154E501DB81C1A94B;
1041      :    8B3737F91E719F168B899C470366;
1042      :    B339E4E4409091B8801913872370;
1043      :    9249F470F148E7481B880FA99325;
1044      :    69C7EB6BB4FBCC8C40FFFA6BAF97;
1045      :    B40D142EEBD1C7D40060E36791BC;
1046      :    D8CCA66FE9965A502120426BAF0B;
1047      :    F2CE2CACCD70D5DC6B4C62A29EC4;
1048      :    E6113E0735E6E6301DBE78D6223B;
1049      :    A6C7886BB79AB610A3CC4982471D;
1050      :    D1FF845C89D8C3DF23908FEF8405;
1051      :    959D2D6BDA5B8020506546239108;
1052      :    491C22556FC272C100AFBC4F7B0E;
1053      :    A90F24777A5561A625E1C7B3004B;
1054      :    980D6624B8CD57A282C9277FA846;
1055      :    474E0063341A5B598E680C9FEB2C;
1056      :    641911A394B2B862E9549D90E725;
1057      :    C60DA233EEB9D040E9B29150E441;
1058      :    42011282BEAE4424FD909C0001E0;
1059      :    ABF816C5200A80DFDB03782CDC24;
1060      :    B9E5D47DB56E03B979867A0657A5;
1061      :    7FEACF0DF5EE8CB05745FA211E9D;
1062      :    3DC4628CD4673730C8498C88B1;
1063      :    21FDD0D1F2026C420A2C582807B;
1064      :    820F0561271488753039CAC0F490;
1065      :    E3C7ECBFD98A1D788BF4C8529409;
1066      :    C689692E9FFEF93887634E53A35C;
1067      :    A6301073FBAEB6F1DB73955897BB;
1068      :    A71E5A3330EBACE20CB71F29945B;
1069      :    F1AE89A301F20055A725EE2C9D94;
1070      :    4DCAE827376628F7636668B418BD;
1071      :    11E8E497EC2006C26F94A99F9E0A;
1072      :    6C02890390A077086800221FAC04;
1073      :    1220580BC831CB30F5F060124585;
1074      :    713427116D19EE4E9B48BC6674D3;
1075      :    F1706F1D7995A0AE1D02D71BE45E;
1076      :    BFF567B96189D0677ACA9FE7D74E;
1077      :    682F9E8D2E33C44CC29E1F12112;
1078      :    E732B879C237B244CD3D64D23DD2;
1079      :    C693FB7D37EFBA21C83D70D8EB7E;
1080      :    A1FD36B52DB8E2667ABCBD6EB579;
1081      :    38B42435D988829770D79333C753;
1082      :    3F967679037AAB177A55B74BF67A;
1083      :    CD6248CB36E3E8E9CF2F78755926;
1084      :    54D2CC183737795CCF2B69F62C70;
1085      :    9CB0CEB4656A5FEDFB2D7DB5DB36;
1086      :    B2911B20493887AFFB9CBCBE607F;
1087      :    AFD5971E6999B7072BDA07BCF97E;
1088      :    AB7522D7CB50AF53AA9397EEBC3A;
1089      :    3899C18A4D4006A51994328E0E05;
1090      :    C9CA395FC2E1680509BCB26F06C1;
1091      :    B04C8E071DC18B3083F0230A5485;
1092      :    195DB6F5D919E3F630AE9D4BAF53;
1093      :    81DA86FD9F39B815B8801F59E07A;
1094      :    777F45E132DA88F21B255643D650;
1095      :    2782385B77AA7068543D0B8137B6;
1096      :    5A14F387FBBD78CEF91DFA06FF3;
1097      :    2CFA57ACDE5D95A2F8117484410E;
1098      :    EA3160D64558509FD40B8CB45112;
1099      :    945AC6900E3443B7EAA8CCBCB214;
1100      :    46188A142646BBD235D9CBB0BB42;
1101      :    ED069865A737B822A4BF9F76AC10;
1102      :    4A0E1A2594339A603CA3D102A6C1;
1103      :    582F1D2FE5A13065E454C4305F99;
1104      :    6B2E55A7CC8F602016CE9E0C6FD3;
1105      :    72DA558DD1AA38F41C247019C3FC;
1106      :    771B4B5BC1999F804884E75B950F;
1107      :    D4ACE4B5D21A78F77F208498FB0F;
1108      :    5AF2E799AC72F8C67FC6B5FCCE13;
1109      :    52A6DE85E19C63F321611DD2A5AC;
1110      :    2FD87B00D273BEA85F237A915468;
1111      :    AEF0FD5ECB13B4DABC62E1B5EBB2;
1112      :    67238B185A3B9AA9FF9FF59568F6;
1113      :    2F5933F98F5F60201C8A0C6257CB;
1114      :    19BD25D68F77AA6CAFFFAD0A3E97;
1115      :    7F33F3DCB23B3EFDB4ED57760EF5;
1116      :    199D103F7DC9E72805AB9F6D1F62;
1117      :    A96D167DBA4DE324809997C5B44A;
1118      :    4A4C2A759E75D72220B9B3862052;
1119      :    C43BF0ABBEA2D849D9FF64D3F965;
1120      :    4813C5E2B446F8F016F160C6B9A4;
1121      :    D9F2A141F0845AED5674E873CB64;
1122      :    22FD06F58F99C70FBE9BDD5CE57E;
1123      :    3BC94CE56A20A7B9011D14AA4270;
1124      :    EB6563151FFB2DEFB9948E0BF4D8;
1125      :    706DE6E58998839F80F2A7DA7E84;
1126      :    E502A780182C61D6E81633DEE98C;
1127      :    D193C5A3192C70D75EF02A04656D;
1128      :    1A191AD04F1DB6AF38D3C9827566;
1129      :    425116D1EA30A7263847D8F7E15C;
1130      :    63DE57F11E1F32A07BDAB5A56362;
1131      :    93123C78DA2BB470CF2F57F5183B;
1132      :    DDB4B9C935C7D61CC42FB4553345;
1133      :    B69AFB1C318BB4BA5F2D46D5D30F;
1134      :    7350D9A0552925A77D416884E127;
1135      :    5700FDBC79BD3731F2A561306127;
1136      :    12BC679261A9A5F5F2C55E587B25;
1137      :    F45CE33243671CD9B7F6AA582B88;
1138      :    D5358E135234FCDA677FA6DF6ED5;
1139      :    FFB53391D2F0FC57E7F33FFF7954;
1140      :    165AC4BE44247AB75C0420BA40B7;
1141      :    4302CB5206269A4C956301152835;
1142      :    425313980031A224FD8913912250;
1143      :    C41D3D1E7DE1671F03ECDE7D3BD1;
1144      :    2F7F395EFEE5F75CF2F7B37F0F99;
1145      :    4D0D2271EEAC522981FE9BCFA603;
1146      :    7BEDF2F5CEDE897800B9CEE78F61;
1147      :    C6E86025C4C21801412620B6AD21;
1148      :    DE3A6C72B0B61FC8D324ECDFB3BA;
1149      :    97AEB70AFBD9348F4850967B373D;
1150      :    C16F8229D8D3C411CABBCE4F845C;
1151      :    D0A7CAA7C5C788BC83747843BD9C;
1152      :    B74D659EDD771DF2FB7245BEA4F0;
1153      :    9F8B91C73237B8D8AC7F51E3EA98;
1154      :    8686DB22B2FA615445753AC1C225;
1155      :    B0BC2DA6CDC4172C93484EBE956B;
1156      :    33FCAEF7330BC3DE58D04B35928C;
1157      :    995D2DBF2D59040D49053E8C1E6E;
1158      :    B56F5C74BF56B877A7AFB76C2C23;
1159      :    D43F8E39BB4647563B9C47C796A2;
1160      :    E4CE000FBB752E0A2F9B933D9ED3;
1161      :    4C22E10678AC65CB516658F4C88B;
1162      :    723665844C2E61DB5DD2B604CFC5;
1163      :    68A54736C488E218F2F13172E5C1;
1164      :    90FD3A674BFFCA2A4E9DDF7D047A;
1165      :    3D7D1B3F2BD8DA0AA29FD675618F;
1166      :    CD74030B67E1C62D4A0A5E35FD16;
1167      :    D666D9C833C113D5826E78FB98B5;
1168      :    E640BD491C9054CC8E0C7C385680;
1169      :    94C1FDAE2930612824490CDD30E8;
1170      :    9D9E235DA9C29750B71A177F1ACE;
1171      :    65FEAB5FA0DF9DEA07EFBA7EFE4B;
1172      :    988D2D3FE95DE7DED79E8E7D1FB3;
1173      :    27B3FCAC3292CA1F77616B9A4E2A;
1174      :    E6165AEC0B1FCF731E1B58A6CFB;
1175      :    801AC448E1B4CBCD1F713F9A9D91;
1176      :    AA112A5D21AF621EF29F99092B31;
1177      :    6E8D5B59AFFFA37FF5D9BF363AF3;
1178      :    EBDB12C21FDDA1322DEBFF4226F3;
1179      :    826FB65BBEF945FE7BFA5C5EBE92;
1180      :    B0E988997508405FE7D9F1368316;
1181      :    EC8A9C68F969C3BFDFF17E0F57B7;
1182      :    61C2F7C9956059FD40E474D25FAF;
1183      :    DEA2F547B0E298D7C96F71D2BB9E;
1184      :    F4F2E504D16BBDE13D660DFED878;
1185      :    42F970E3604DB5AAE88AE19DE576;
1186      :    2BF83A900AE8B64034931AA32571;
1187      :    2373A500E54B26835B295C52062;
1188      :    186EB7DDE960D7DA0ADE40FD5284;
1189      :    996FB1284484071D6C1753D377AD;
1190      :    B24289988A48305CF83428340340;
1191      :    95A665A6DDBC6CAF33649EAFD4BF;
1192      :    19BAAEA6F9E963C7B32157AA9DBB;
1193      :    7FC624947F1011D21AE0878B941B;
1194      :    C603F841D2E1B861A82772D42A22;
1195      :    E63340C1D633F468EFF6F9CE3B31;
1196      :    590D92518B23F269A09E589129A2;
1197      :    2DB5231BF2C4AC690363764EA629;
1198      :    B83EAB898880EAD9C726FCF690A8;
1199      :    8418C3D33F6BCE4A842FD0E6910B;
1200      :    44993167FC93C628C7B92A0C8F4B;
1201      :    24DF2330E88FD70605EC8036E06B;
1202      :    24662A59E8F517243CB58D0E8D13;
1203      :    B1A2E08FB5F0B8D94F676AE29EA1;
1204      :    2C986C1F63E408F03564E36B5EF3;
1205      :    CB8E307BE5A7D6D21764E25397BB;
1206      :    29785ED04904AEA74AE9A7240557;
1207      :    B8FD3FF6CA98C796201DB76E947F;
1208      :    907C7CF0CBD2670EA28B8DEEC26B;
1209      :    474331513E99BF22F5F955596358;
1210      :    F484478F77ED0D34F56CF1B928B0;
1211      :    474240002BBD94609C7F38712BDC;
1212      :    38C2E54F2082A8C557072A6ADB29;
1213      :    31C3C5AEC02A5093F46462AAD99C;
1214      :    7572E5AF85AA71C1544D403AD78D;
1215      :    43906250BA1CFEC07D673A915920;
1216      :    53936C089A0F72B1A73C31842328;
1217      :    2F10544922C18C70D5099651666F;
1218      :    AEB35A3A826A8AD57EB172D14DF3;
1219      :    2EE90ADA9CD9F2367B9ABB683FD3;
1220      :    4F9730118B52F778A4BB940EBA72;
1221      :    FA19A68607C58AFB6BDD3BA21404;
1222      :    4A99D34736E2D27755524A5B37B7;
1223      :    4A62B30922A5B0D4DDE469314C9C;
1224      :    2AE2D6ACAC2ABEB3FFD0BED06F0B;
1225      :    6896C2C788BDCD36A5506D9A4592;
1226      :    B7144301E81B3DCF7D71950E764A;
1227      :    ACF07F913EC89E00343B33777A64;
1228      :    8F1A6C8E48E7023FF7A7BBB6BCB4;
1229      :    7F82F3C2326F3AB5DD4F36454830;
1230      :    1EBAFF1CF16C6EF650287C3451F2;
1231      :    5F8919C90E4B5D06E498DD233654;
1232      :    2A0933A8AC6DE23EAF9C93950342;
1233      :    34AD5B9C4D4B260C7CB8B7A3EB42;
1234      :    6D3D188C6C75366A7491C4B5E76D;
1235      :    E9591A3FBCC7AE0D090BF44DA57B;
1236      :    67171B53330533A0540CDFB91699;
1237      :    6E3F382FA7A228C150CA6A33FA39;
1238      :    826F0D2B70B1064D11F8BD5F853A;
1239      :    CBEE3C6D9D8AA46047751A43D779;
1240      :    2580A77890AEA0AD6195D3559EEF;
1241      :    8F9A0A7BE3AA86707676FB5B1583;
1242      :    B381C623604749348B021956168;
1243      :    CA80DF24FE3657115DE90C0B9748;
1244      :    8D402AF43EC0FA18C8B99DC9EB00;
1245      :    E7AE727B29B38848BA77D8D9BF5E;
1246      :    F885B619B5B49475AF3862C51AD6;
1247      :    510C0A0BEB052A4618AED14821F6;
1248      :    7FD2E08E74EF48AD57C7E882CE9E;
1249      :    48EAC590F42B4D95FDCE64A84C8C;
1250      :    74CAC5A7B1AE17A15F45AA1AD19F;
1251      :    5228CD84F46616F8EB3B63960476;
1252      :    4A86B13EDE7057BB9B996862C4B;
1253      :    4F920212D4867C48F6BF598D6B98;
1254      :    AA3942A70925A2BA20F2A13A0891;
1255      :    5C0FFA8218B130B6176DC1314521;
1256      :    EE499102B66F70651C2D49116330;
1257      :    B05577830309653EAA1001896315;
1258      :    AA606FDA1208CF2CC29D9F1A13D4;
1259      :    B20D2F5EDB38F701C30F11A9472A;
1260      :    71AAE5ACC3AE6A95EA4025B2828F;
1261      :    F3A0E714C638EDC968642200EA4E;
1262      :    40B04704D81AF539604027E2C3C5;
1263      :    F0FFCDDF4F75D71BC09A9E7C90CB;
1264      :    540F6BF62FF5D3AAC04214FD7888;
1265      :    943C733738BC4BAA564B5CF7954B;
1266      :    C6871B4FBCA71C24A7B5C85F2928;
1267      :    161781B596121F09013C63FA6088;
1268      :    D603D1B9C0A00E283A60A4DAF285;
1269      :    8E93D90ADFE3EC68963BF933AB93;
1270      :    2317D43B2A5F885EF677CB1F805;
1271      :    7246458462A032659D262CB2CA8D;
1272      :    6E2AC462407630D3416062025FA7;
1273      :    62523038244C3CC2206023992AD0;
1274      :    697E0A10528E8C401A9FB76297E3;
1275      :    18FDA7AB4DDBC79FC0CA9EEA98CE;
1276      :    51EDA7674AC1C7F67874C277D40E;
1277      :    44B8368474CB1FB4DD745E34D31F;
1278      :    ADEEB65FB7673ED0A75FFBF71E8B;
1279      :    ADBFA21D2FF79CDBEF9BFE5F1A83;
1280      :    959D7A1FBDD3F7DA564FCF5E1ABA;
1281      :    F865E4BACE0ECABF13DCE1988394;
1282      :    214E375D841A6B87A4D0E1AA6ED1;
1283      :    284C75C4921609B701E52BAAE4A5;
1284      :    BBD5068D6D9A473EA012DEFF2C38;
1285      :    59CC04846A99CD0CA80A5947AC1A;
1286      :    7B4786D01E49F8E22D18F34300C5;
1287      :    6F10EF2AB0A51130D76573958314;
1288      :    594F187F77EFEFE511C2164FC77A;
1289      :    D241FAFEB7C5F35507CE1F6BA436;
1290      :    B56AA579CBD2D95ECB3FBBEABB29;
1291      :    B5E6467F47F23F11F8571BF5A9A4;
1292      :    77B6E62C93EEB0B1FB766952C33E;
1293      :    519378401B05B3E67C81801060C6;
1294      :    C99393C26E6F0AFFD5D91FA4625E;
1295      :    A6B9AD38A75E0BBA5BD9AEB1F55E;
1296      :    217506B7B1D4550DC8809E6DB14D;
1297      :    DB11C7F25A6453725C891C9F9104;
1298      :    C48A902633767E701D71DD57B91E;
1299      :    C6879A6B34F298A069D15650EF42;
1300      :    A7240211AC849C2A6398EC1E6068;
1301      :    481D0311AF125A24A1B0C18203F0;
1302      :    FBA6D5EB819EC0107E3FAE40969C;
1303      :    FAC2FCFBE2AAE8374A3C8A635B5C;
1304      :    FDF0DDAFF5A814051724FA3BDEDD;
1305      :    7FBAF71F33F4F95B27257C6BCCBF;
1306      :    77B6FF5E85E759FC372F4EBFDCB7;
1307      :    FC97FDBBF3F76B855D4F74FF9D9F;
1308      :    2242DB040122612FEBD0008CE5EA;
1309      :    32C3DD38B9E441B08528491FA1A7;
1310      :    2779764709B60BE92310259B86BD;
1311      :    EB741B1A5D8BEC62AF92954F227A;
1312      :    A6461D23AD91DEB66E6BFF5EA419;
1313      :    D337F4F7CB1AB8736FA7CCFB1D3C;
1314      :    F111035EC6DE60C2892B59515CB;
1315      :    6A2118166CD58708188CD52B3C52;
1316      :    6F252A715275AA0A289BDB476662;
1317      :    8CA6B02F9C88FC537A6D694BBB4F;
1318      :    6817BCD7B89AD86CFE4048D14B8F;
1319      :    4CA0F109F8AEDCA1DF7D4FB3DD26;
1320      :    7DC07EA4E01957AFF099EC9460EA;
1321      :    7B384F9C46AD599791E8A81CAD5A;
1322      :    37A6715487A4D9399C1B7DAA4F0;
1323      :    D80B808B6D6457BF59F6C43B0385;
1324      :    CC4FA03ABE66537895FCDDF21770;
1325      :    EB2C0759AEE69A60D494CC422A92;
1326      :    B3AF7771AF4CC5DED5EA8EE6952E;
1327      :    DBB7746DA948D9880025D7E69889;
1328      :    9AE2E5E6ED8E80B91324FA47DD99;
1329      :    8F09D2F78E80E65C39FE5833A327;
1330      :    C48B103B3848E4B959B82F325744;
1331      :    1D6F094FBEDBCCEC51B9F44E1D53;
1332      :    F4FC3F7CF7A4B20CCABFB561B6C3;
1333      :    E3603CF51BB3BE462A9FD76EB4F2;
1334      :    E7723A511ED5EA4688BDC5892462;
1335      :    D683CACBBAAD20327755F8915396;
1336      :    A888F8C11CCE383275793BB35BB5;
1337      :    13D2C3B03F4671D2DC5448B06994;
1338      :    37D347EE654F4D8F239AE2BACAF7;
1339      :    5BE5F7B64E6A0DAF2ADAA73044C2;
1340      :    1049339795F075C68DC88A2C458B;
1341      :    4219D81E6C6F3670BBE824C22A16;
1342      :    591D1838EE3437D188D83CB51B65;
1343      :    8604CA96FA144548942DA44A2B30;
1344      :    EA0C2477E1BA887A4A3685DB9CEB;
1345      :    6C8EB18EFC343620B426C95A26D3;
1346      :    6A0A1851B9A398701C6741D143B9;
1347      :    6503431234A25DB547D57C3E4A20;
1348      :    74EE452A056B30FD75E128B2C891;
1349      :    70086DAEF5A802D9D34C6413DB85;
1350      :    19FAC298ED8ED25562B4E19DF31C;
1351      :    E9A2F5C80D00A401E3182CB88CA2;
1352      :    3A3239120F08E4C37D6060D161FD;
1353      :    BEE2B123FEE670E7C8754659EEF;
1354      :    5B3A4CDC516D237AD5B96A391BBC;
1355      :    63DAE684530DBB963DF433F56334;
1356      :    6DA70B137DE7DEBE47ECFB665FCB;
1357      :    4733A9A384217FDFCB5C9E6F9FCB;
1358      :    14B3590891E04ABC01754E969A89;
1359      :    32F3653DCF7E27B8CD9910DC65C9;
1360      :    AC310711D73EB13BEE9A88B76ED4;
1361      :    E7B3E3D0C4FE584AE531255E2BB8;
1362      :    4DAEF2FFB7B6BE29666F985F5C17;
1363      :    F1B67EDB77C2BE405D678879DC91;
1364      :    198C6E1DF90F2FC06CF745332596;
1365      :    10E3E78E695E6B9F32406CBC8C1F;
1366      :    50728380087649BE10D0A4CB0292;
1367      :    610AC9A501E4C9EBC3646AC87C88;
1368      :    B110C79E0939699FC7598538688F;
1369      :    1DF8A5A605FF69F3F1D16FB378D1;
1370      :    461285AA323F68F69D752494FB9B;
1371      :    E6119A5B1EB74B30AFBC43F500A2;
1372      :    A12FD36F8DA6B329E76049849EE1;
1373      :    B2CCE8F58DA29BA820D7A19A4CE6;
1374      :    D875ADA6EC0CD21BBE4A494D273C;
1375      :    AF56562AA898BC2519AF9AAFD558;
1376      :    16EEB4EF215E29711587C37DD75E;
1377      :    8F97B5CEF7D4788C8B94065F4DB;
1378      :    697F3AF4FAA46B0B66BCFCB3E0C7;
1379      :    A17BF9F84BB5E68A0CF9A8A5A1F3;
1380      :    CD9F324BBEDD1F49160DD86B3E0A;
1381      :    EF955407BAC4B86A0B66F62A5803;
1382      :    C48FE069B5C69792953480722E88;
1383      :    51ABC56FE4E6808961846282CB95;
1384      :    22A8BCED20EEA76181E0834341;
1385      :    10ABC529C4E2ECA063646882C3D5;
1386      :    FB7845B88950890C5E46AC425607;
1387      :    A9A5C404CD16920CD046AA34D18D;
1388      :    B9F5E5960DACA056D403A07AD15D;
1389      :    FDF65647EB98A6AEB8BFFD4FF56B;
1390      :    22FCF85AF7DDA0A3C94BBEB24C6;
1391      :    9BB7AD5788DFEA4F68D7BF5B5DD2;
1392      :    1E80184BB2E73E806DAF70F162EF;
1393      :    1A81D36BF433A2B9FFCEFA05D953;
1394      :    6EB01D0E67B9D8EC6D453253E808;
1395      :    91FA2DC4A584D194A7B021EE3598;
1396      :    83AAB1658906F05045F582027F60;
1397      :    7082E44C0D4630D52565A886C485;
1398      :    59B736FEDD9907AF7ABA5FBD9B7A;
1399      :    3D92FFBC31FDCBA55A443A21577F;
1400      :    7DE3C6D35D39CDD37F86EB6E085F;
1401      :    CD327B78F6A37A79CFBFFCC4EB01;
1402      :    7AF3794D3A4EDE1F7FBB937EFF6A;
1403      :    9AE3C7D5CE70E7B6E3D7AC8D692D;
1404      :    F26BB1E94F63ED2153F1115BBA2;
1405      :    4611C11436F639477E61AD136AE9;
1406      :    E11684085A623293E3374F460A4;
1407      :    3055D1E7409A98CA8756C10ACF00;
1408      :    73A5D6E7812308E5E032AA1ED55D;
1409      :    489CD29CC9EAAFD77B46AB44D5F6;
1410      :    CF4618213F33572C8C9D9CD57458;
1411      :    7F8388485F6F4C8D8904F8E5D006;
1412      :    F547C44E1B684D97C94D22BED0CC;
1413      :    3E404CB4C100522208BAF57CA118;
1414      :    EB263CBC6AA0750D8C2EC72EB137;
1415      :    C427D8691BC1E6462875C7DEA93C;
1416      :    DF07AE313D272AAAE739DDE13112;
1417      :    4482B9E2396F28369A401B2034D2;
1418      :    52C98C02712F21B278F4092070B4;
1419      :    75E8CD9E65A718A57B45200C5B7F;
1420      :    35F4E4B6C0CA1CD8C04A6030CA85;
1421      :    B4D66395A578FF3F5345481CDD8F;
1422      :    D13CA449ABF96851F7662E512D23;
1423      :    6BF9ECE43EB9EA8E0EC20DEC610B;
1424      :    7034C7B555F8EFA25B09BCF6334E;
1425      :    D689326B9B9BB530E89B79DFE371;
1426      :    675392F5C6339E60B5BBD9932091;
1427      :    47571B55BAFFBE2AFD3FDDDB6D5E;
1428      :    BAA49C5AA0ACC074751670D1A837;
1429      :    99DC77140808A86C1C08036B8446;
1430      :    D98BBD93F9168E5175F4830B5097;
1431      :    391FE59AC9EC76937357D67EBECD;
1432      :    1036E75AC8DF991CB4C7126FBE2E;
1433      :    86A28B12B407A6C694BDC15D079E;
1434      :    1407E586E475DBEB976784DA29A7;
1435      :    508723B6F8BD6F925E229C9A0D03;
1436      :    CCC4DA81ACA1F071756AF463BEDB;
1437      :    C213B24B952580A02BC6789112A0;
1438      :    4E8B281BB4A7BA60B7777FE1EDA3;
1439      :    4619034BEEB57266FFB8CDD3639C;
1440      :    6059C4C828488FB6C05915BC436E;
1441      :    A2864EE74EBD553FA299BBABC20D;
1442      :    15D16D5ADCBCD7F9B99DFAE3EF8;
1443      :    CF9B0A6833B49370F7EE9DF1BC74;
1444      :    9FCB326D317D1D303DEF0C3371F4;
1445      :    C70E01F6B92FB9EA8DAC01CC10BC;
1446      :    B77215758159FC4BA723434FDF4B;
1447      :    B5436567C9C2488561212467D905;
1448      :    54CFC4C721605A7DC2015294D32D;
1449      :    FBFCF3DC8FFE3E95DA0CBE8EDE3F;
1450      :    F9F6E5BC4B5E215E6CAA2E2E74CE;
1451      :    22B0C1BD9FFCA1AFF71467A3DFDF;
1452      :    57E7CAC5DAEB47A7E1B052824DBF;
1453      :    3043C293136859C3C5710DAA599A;
1454      :    35D444A4B0775DE323653EEA888F;
1455      :    91F708693D49A7037E8C9834C46B;
1456      :    BAC9DFD1673D53BA30944DDD42F2;
1457      :    BED9BBD20A54E90E7CD21FCC37C2;
1458      :    95EC752CC99A8F14FA19B44EFE4F;
1459      :    990EA0DCC958464C50140235CE4F;
1460      :    A9ACA17DCC090D0A4293120057C6;
1461      :    5EC23CAB74EAEF458563F7DE6C7D;
1462      :    7EEA3C8A71C06C6D836897DFCE39;
1463      :    75C064AC75B168B103610233DB1D;
1464      :    B4690FE94F818A39261EDD5D2EB2;
1465      :    43094B491BF3B040640D48E22AF0;
1466      :    E547FA619E31D140AC9F55FE35B0;
1467      :    3DFFB4FFB5E789F01FF5FD6F1FD7;
1468      :    B48F986B7CF6D0F32525F71E9527;
1469      :    9E4F80FFBDE6DE701736D6CB1CBB;
1470      :    30ECE51CA908486FBBF0A09A2FBF;
1471      :    A98E473CC9534D4A39F2C02CAEDA;
1472      :    DBC2E78FCB58299C0B65381693C5;
1473      :    B6D53B55CA19E716AEABDE2F651B;
1474      :    B8F526C5CAD0D648E29A99E7AEFF;
1475      :    A3755EDD484ADCF728EFC7CF2D38;
1476      :    9B3BB6565844778204A145F5850C;
1477      :    5A25A4649E1E5E2A84296CDE9C06;
1478      :    82C1544D7ED84AA090A894F69F19;
1479      :    C631D261F277F02928F8E4903774;
1480      :    4E0F1A09BEA5BE4039ABD1F3C7EB;
1481      :    45490441F8155640B9BA94418562;
1482      :    9BB26261A6CB0C707D031C6E944D;
1483      :    F9FAFDEEAD9E8CFC54466B6699E7;
1484      :    FE8EC5EF75AA82B0537CE001D39D;
1485      :    C112834B0604A80220C64A003E08;
1486      :    F035AB791FA0584AFD74D78D7DE2;
1487      :    4777B885DF83CFF286EDD5F63F7C;
1488      :    320AD5CE587D01A544402088D305;
1489      :    B2F844E6480E82D4A3546101C814;
1490      :    87930AB83B2A3DB13DEC35DCF73A;
1491      :    B9CC85B36DF9E58E135F9F5C96DE;
1492      :    38CD128535ADC22F58FC56B3902C;
1493      :    FFD9BD9DBD6EBBB2776D2FADD7EF;
1494      :    8F1F185BF5E9B36237A8D41912F3;
1495      :    E68F0A78794FC82A0FCABC9E1EE7;
1496      :    3253985F6351F7DA38B98E8E16B2;
1497      :    3ADDC437078A9B4A7B07A01F8F0D;
1498      :    8CAC655FF1AABF615F7623F6DFB3;
1499      :    CAEF50171CAFF9015FD3B663BFE;
1500      :    31686CF56BC0670AA0BA9D6CAF30;
1501      :    8BE9DED93ACC86ECC4BDFBA32C24;
1502      :    83453A555E51EBC285F9B50B2462;
1503      :    4C4A49E2E39BBE7C08D9AF92D;
1504      :    90CBE4A4D9F6C07CA3F06812DB35;
1505      :    682E280B27E59D15D6598D236BB;
1506      :    1E939A924B129631A89AA1813572;
1507      :    AC55AD58C1FC32EAC9EFADD2EF6;
1508      :    739B0E558E7F7BE4EF32D5D30BFA;
1509      :    C20AFF67324189317551B60190A;
1510      :    4983D9CE048E5A35FCE03AE1327C;
1511      :    DC8AC18E204258E357486093FA0D;
1512      :    11F8F582C04E23B7E7C8C5B063F5;
1513      :    A0FCF7C4CB788912E374E776B6AD;
1514      :    976CDB40255376CF09BF99DAA840;
1515      :    CDCF1A39BDD7FD28A43E3DFD2D53;
1516      :    DC8002003B1D7770BDEC1D915913;
1517      :    4E009C00390F3A34B5B411011931;
1518      :    79B6C11B448E8C611E113A24EA4C;
1519      :    7CE0C1DBC1824ABD506062A6DCC4;
1520      :    30F8C5B7C1EA7C8D47446A23C485;
1521      :    C63FEA13BDD74060BAFAF358BD8B;
1522      :    C87F2359ABA4DE4B2AC3C59EAEB0;
1523      :    6946033DF1B71A493F7A9D5FB6C9;
1524      :    2EC4E04A040BBC241935E90281EA;
1525      :    E6B6D46AC52A052C4DF0EB87C5FF;
1526      :    2F1A347FB89EBF601D66B75397DF;
1527      :    B15D489AC1F0474208BB05FF0C6A;
1528      :    D1BF14C7CFD04A5CAAA3DCEEADA0;
1529      :    D6E31E45D243587FAC255ED639BC;
1530      :    49F6E8A6CD6AD95F2F066B8AA9D;
1531      :    467A030FAA965DCA747544382AA9;
1532      :    50261914A4C45348967845F12391;
1533      :    5BEEA5BCC3AB223DF676D99F90A5;
1534      :    77BFB32BD4EF22D9596F5AB5B44A;
1535      :    EF7CE129C5BFA0E0D60E721BD6DA;
1536      :    B5F7A43DBC16F5418AF8D6F0CA2;
1537      :    D037587D9A90C60B22B1E666BE11;
1538      :    CE4A7D67975288BDA0216AD69D3C;
1539      :    DAA679106AA830AF7F75BA034729;
1540      :    FBAA753C5049626543893A20D42C;
1541      :    BAFCE790C47237ED6673B7A9F903;
1542      :    D5A9165FE77AC79E95AFBF4833DA;
1543      :    912595A12FFB86B1E1BE5A6314D3;
1544      :    EFC30A03367579048565597D80CB;
1545      :    450BBA7BB6E5F6C41BD65D21BF01;
1546      :    6E2F03C9B4E7D26059977483130B;
1547      :    39AD236DA6FC536942D883ACC50F;
1548      :    90C8E59E6DE5F31D023E776C92D8;
1549      :    ABF8AB9F36EDE2090A3BEA719263;
1550      :    F42D5DB8FCE5F77997E9563F96C7;
1551      :    8B4763DB2C93CD47928F8D6A8E0A;
1552      :    A77574D9ED1CE2D2D805D4FAC8D;
1553      :    B27D56EDA0D88B7122C3D6CB9D2E;
1554      :    F42B60291328344869335852C7E7;
1555      :    F600D831F02E34C84FF938964574;
1556      :    7A98185BBCEE367868A5A041F7F7;
1557      :    7A58851E252733C5C06122B9C89A;
1558      :    A16C7BD652E12BD7366D50B978B8;
1559      :    935AE3AAAD91501F36482B19E59C;
1560      :    B3EE64C1C5F9CB1FFB77DD2F9DC5;
1561      :    75E3C9BDB12A8DE76B4E9C83DF3F;
1562      :    27BCD6F97BFACB03AB6797CB953A;
1563      :    DBE63C707A9075422C9B1FBCA57B;
1564      :    D1D251A4DFCB331CEEBE45E77E7C;
1565      :    FE92EC8C5BEE2ABBEFFF6EFDF99F;
1566      :    989C345C2905B310123FD57D12BA;
1567      :    AFC92A7D216D8C38030FD2259E6A;
1568      :    9944250F2FDBC73E52CCDB0D93C6;
1569      :    940E9773F6D9D34DD326E54E3F4A;
1570      :    500FC5C6981C5346B7B5A7DA8D85;
1571      :    ED0D0656EAD4BB42163387CF8D29;
1572      :    6F3BD82232E924293E5830139321;
1573      :    AC1B523BF7A13CE937F7F8D151C3;
1574      :    6AE91309FEFFF068359743436F32;
1575      :    6E1358483C4F463628803493213B;
1576      :    E091AE93645FE5DD19A1817A331;
1577      :    9E85520D3C151E781DBC98C26B35;
1578      :    87DD8B6E77D38CB362222D6A5F2B;
1579      :    A59BAC3FD5F3FA884A8B65521BFF;
1580      :    CF92704E3FF6B0F97F454E7143B8;
1581      :    4AC73B187ABE2798CDD78A16442B;
1582      :    49955B236EF76631D97FDE17FBF9;
1583      :    6AAB074B6EB77ACA0FE63AEE8CF9;
1584      :    C3FC2CFD9BB8E35FBFBA9B6F967B;
1585      :    62BF32514D7981AA3B8D9B5E207F;
1586      :    6FBE1A751F1F849A1FFFBD2D5E75;
1587      :    14A3C9A454629AE1437520B2FA64;
1588      :    50DADDC4DE7A35FCEBE170CA6BCE;
1589      :    54EAE30474CC7DCC9C8528963A89;
1590      :    B25C4E9D41548E22809AD7BCB830;
1591      :    8D4559F40A04B368A0FE514B38F2;
1592      :    8F152A1CC9F572622C938BFD2F73;
1593      :    DC415EB04C99372C5888392C6924;
1594      :    49804C6E6824944018A0C0878358;
1595      :    9F2176623D35DB38F99AD503A75F;
1596      :    A6D953681F6FBC009C631C71EB3E;
1597      :    88E4307FC2C210C9C4275B5FD62D;
1598      :    18214593B2D0C269FE275CD37229;
1599      :    8A2AEDEC3264B2F1537108504DA6;
1600      :    4F9ABD4A7A37B3F2537842114B5F;
1601      :    4F853B91779F016EBC8F1F216752;
1602      :    68C5519E6EB8E315EEFAFF6144EF;
1603      :    6F617E5C2F63D3C81F3BD761B0FD;
1604      :    ED7C3FF991B5AE4F8B2BBA6EB3DB;
1605      :    CF8B347FBEEBBF49148DDD6DBEFA;
1606      :    1F0C7D622E584801961D9E66939F;
1607      :    CAC0A0EC0F4E58EEC9A1492729D1;
1608      :    CDFB2F7FBFFE5D8E57238857DFCF;
1609      :    9021C4C386844800951D043869E;
1610      :    316CF4868D4871F5449103EA000D;
1611      :    11C46DD6552937524FFD492E50BE;
1612      :    A5C7EAFB5F611DBBFBFD3ABD3FB4;
1613      :    66EA61E80E6A989552B57A901D72;
1614      :    D43BE27FF3C6F75BC964C4FB0CBE;
1615      :    5B82B39FB5607DD3ED6D062C795F;
1616      :    3DD065947C446176A00006BECE88;
1617      :    A038A047C48580EC2072458A20A0;
1618      :    681F92D0B7A7A06239F7D5871EA1;
1619      :    4E1F1A52AD75A662389F955127F2;
1620      :    F4B6A89E793171DE7F29CF78D0EA;
1621      :    168983B469A531D75A4E7535D148;
1622      :    78508C9E7D8D43923F087428B263;
1623      :    C632FA1693E7BB7AA7775D2CB8AB;
1624      :    6737BB1797F7FA43A5E2064E0E86;
1625      :    EAB50BE786B4584D14A06DDA8E8D;
1626      :    818F7321BFA7B0A2FED1DC07FF41;
1627      :    EA1E5221BBB0BB314F76EA5DD6C8;
1628      :    6A721B591BB822601D3EC2413DFB;
1629      :    168F489A6F6C569FF54C21B8E3C4;
1630      :    510593A2DD4B7B9B396F5A1350D6;
1631      :    1EA0C9C2944D58DF64B82991F387;
1632      :    5BBCA795DD519FFA8672DE288DCF;
1633      :    B8EEE70D8168FB98D54116F4D90D;
1634      :    B554C596D37A0C9D4F7DDAAC1A88;
1635      :    997E3847FA4CB7600A2286DD0EC2;
1636      :    C839107B9A48EF4E21B79BCF0FE3;
1637      :    881D06D1CA5C7666E0B7959607E2;
1638      :    CB568918CBB21F9D3DD121956BB6;
1639      :    4C0EE17B521A3D20A6D139B5872F;
1640      :    B49D471B4AF33EE9538EA77E96DE;
1641      :    E710096F20D238B4E56D22B57818;
1642      :    9650F9126ECD427813E3A71D4839;
1643      :    E07180F3B33BFF887BF5DDBE11A;
1644      :    631791CA3E350A700026874820D2;
1645      :    840F5663F73CE32093B0CCCA240D;
1646      :    66D603522E1C2240F4D82D1823F0;
1647      :    14E302BCE5DE5B9EBEC6EC7860CA;
1648      :    4DF20722565D788F3886A4F6CE8D;
1649      :    2868DF1604B573FDF54668196395;
1650      :    B1163B1FAFA80782070D1A615CCB;
1651      :    D27CB51AEBA30E8A236DC99CBAAA;
1652      :    6EFDB356C7ADA6CE1E8E4BF5D4DB;
1653      :    694E3335FAD3CE4C0427167F264B;
1654      :    98AF18E9C010837400A8DCC59D83;
1655      :    8E1EF817E1A4BA110966D43BBDEF;
1656      :    D23DD851167F7EB9EF29D896267B;
1657      :    2D3D8D9975CBBB29DF24D9621A4;
1658      :    9CDA5ACEFAD33FF03B21A7EE3BBC;
1659      :    EFC6BB3BF7BBBD61EE9DBF41F55A;
1660      :    ECF72B1C23073E7517178B59BC32;
1661      :    8D96AAD9F1A6FC563426F0A14CD3;
1662      :    6882C98FE5EE4ACDA350620A0AAC;
1663      :    4302AD86554049B500C52AC060A1;
1664      :    30CBE3AE05E231B543452094D0CD;
1665      :    5F9A3F5C74E53394D560166C78AA;
1666      :    2FC27BE2525579933E4B3E01F129;
1667      :    3A5BFBAA4C45A1936988E0CDC48F;
1668      :    ACFE6D8ECD0B478DF37CBB04D6DE;
1669      :    B5FD85BFE19809D7AB16FA4E9EF7;
1670      :    A5B9A41EFB6A0D2AA5D6557AB7F2;
1671      :    FFEE7F5579D1E774866B1F7D2763;
1672      :    9BFE5B51F1D72F36AF7B3EF53D7F;
1673      :    CE9AF5A4B7FE2BBE6FEBEAD976BF;
1674      :    663B680690262060E4A94990A3A0;
1675      :    729BB1297415140E431F94674B4;
1676      :    61080140B6B21A4885230E862D24;
1677      :    6C58D4BEC821B1822292E09A317D;
1678      :    CC6AF13B19B5EC957CC61B53B181;
1679      :    6B1F5ED15425B4B13586F05106EB;
1680      :    A84CA831AC5BC578DA9A1E5D670A;
1681      :    87A5E1578FDB5FACE89E1E646FC9;
1682      :    D8E8E18293ED59BF5B4DEA3DDAB4;
1683      :    45864958AABA78914BC5A700CF58;
1684      :    12E5C5EE58FAC6AFE315B21BE676;
1685      :    FBBE27FD805BCB7D59C8BA2DC6CF;
1686      :    A7C03E3E73D951D0C9221E2CAD0A;
1687      :    D4C7D64863F98D9CA92E1A6D111D;
1688      :    7D1CD4ED736F9EF17B437E531252;
1689      :    4C87FA5BFDC6D3C9EFB5315C2663;
1690      :    81430B0BCEDA4345E5190D342002;
1691      :    4710B508A16433AA8B1C4AA0990;
1692      :    BA387D31124D41DA58A06D0D1369;
1693      :    9439F1700FD5634A186826A1B94A;
1694      :    B1B3D5F003D9274FF84B1AE8A367;
1695      :    CF8EA7DB9892BE20DD9FBB5B3747;
1696      :    4AAF527983D7EEE0AD93E96CAFD2;
1697      :    2233D2E914F3E82C1EFFD8F628E5;
1698      :    5EA2F5CFF6EED0C0516660D3CA9F;
1699      :    91047DD4ED08E19C714FB659C394;
1700      :    79D67584A98475D713B5A77A4EF0;
1701      :    4488950C742592A0956052A52A8A;
1702      :    4896D566A48C1B0A17400A918A9D;
1703      :    3E7C2D3D6400378618CF02A884C9;
1704      :    F5E539AFCEFCFB0F4A9A9565BCD3;
1705      :    2D6D78FEFB00AE0F0096A0E79641;
1706      :    546E3A7FC5B86C4E001FED1D8F63;
1707      :    8726BF28E5980E0D364D9A2DFEBC;
1708      :    836E75A80DD50C96022E25FDDC98;
1709      :    F6B6C4AE59E609D1276542F8D89D;
1710      :    93110C0C0291C50AE8C8178E46C7;
1711      :    A839F5FCD737A59EAAAABEA6BAE6;
1712      :    716EFFFC03F4378F98F2BFE6F5D0;
1713      :    8E2F56E1AE9AB528BE9FB1550742;
1714      :    7CC80861B91CB9461D9B884696FF;
1715      :    34F992F4AD5B652E4C97482B0AFB;
1716      :    5CFB51CE20CE58C0A4B533837A8F;
1717      :    6D0A61BF7082FE914E4932E2EA85;
1718      :    31C2C1BFC5C04DB740416220C8A5;
1719      :    A5BFCC6FB7F6F05A27FEF953BFA3;
1720      :    C587382DB0E6987A5DB7D3D70F82;
1721      :    D07BA03BAB4F6589677895F2EA2;
1722      :    107C45E28000A0AB13B0A186ADC5;
1723      :    69BCF79AC9061E322290E39F36C3;
1724      :    F82EC306E19679581784A23267B8;
1725      :    81701AD9CA886CBEAA9BD7F83914;
1726      :    F6737EE5DAB1F8CDA33EF1CE6C38;
1727      :    5A40F9C9164078F5EC55704B6CFC;
1728      :    1058C487C301C3FD806E67CAA0B5;
1729      :    65BF005B52D8CE041D27906A0CBE;
1730      :    9C67A1A92E5AC0CD600618F49E08;
1731      :    5069ECA48A70500FA0D048A022A4;
1732      :    24648B8A720C5CBD2344B0B0473A;
1733      :    5A44A5146D2D2098C7A159436B33;
1734      :    FE5AC6ED0218093259008CB051A4;
1735      :    EF8E9A4A57FF9D32D26F9E8DD7FF;
1736      :    2DC7C5B65AF6195ADFE63D57ED19;
1737      :    12A0651EC664C3D300548698BB9F;
1738      :    8FC321BE4F6F6489E7543F22F99;
1739      :    4CAA373BF6A2F288A5EC504B7B98;
1740      :    C135ADB5C2AC4FBBBBF704AE04D6;
1741      :    6064211A85B278AB94AE6AACB6CB;
1742      :    78A2F52E74BE09A8AB34E805D7D7;
1743      :    F835E08ACAD59F593A6687FBAAAA;
1744      :    9F7F82540A916D4B36939E6624AA;
1745      :    8225016B8FD2AB0528BFCCCEBD0D;
1746      :    E1AEB40FE1E8D8F1E745FA0B56EB;
1747      :    A866767D8DEAAEC9832796EEDDA3;
1748      :    B37E95FDC3FC8FD343D7B63E962B;
1749      :    83EF0E51EA5AB432B6FFDE6EAF6E;
1750      :    402C0FE14A7BC12409B21FFCA06B;
1751      :    502386F0005E0EAE43D9FF87505C;
1752      :    4E961309349796008E101253724B;
1753      :    4F134346B5A37E445C9BAA56028B;
1754      :    16F1B90FE74A7C8DC84F08F5285F;
1755      :    A7C65849382BDC3668058E075769;
1756      :    BAC545A5095B1174A380B7AADA24;
1757      :    13DC41FD005865157A633F1EC46D;
1758      :    BFE23E65B159AE01EA9B1E6BF577;
1759      :    3FC3DAF87B13BFF8394B71C57174;
1760      :    799BD8FC1B5F1DB3D3B9B68D74DE;
1761      :    CAB7E6EF1C3E36EFEB284B15E1B;
1762      :    9F12F5546D96BD6FE9F0CA84D2B;
1763      :    1D37F314AA415A2EBADB357EAC65;
1764      :    1FB2F51E6B04769E562C76C0C287;
1765      :    8DD69B3FCEC4BF8A74752831C38A;
1766      :    2690DD3A56C8540768D0BA85E1AC;
1767      :    A1F9B685CDE947AF13DB1CAD9DEF;
1768      :    A5FFA7DC27FA45D651D17A6C9D6F;
1769      :    3DFDC6A793FE811EC0191BECD46F;
1770      :    CF677A79FAB0F678A6AA16542663;
1771      :    D05750799B9EEF6420BB175EBE6B;
1772      :    871D7E5BBEF0C72CAC8BFDEF85EB;
1773      :    6B82EC78B8249361C4107BD3A160;
1774      :    A194746CB5A286E54B41CC81D75B;
1775      :    80D4A73FA2BEFDB0C7D7DF2ED7CB;
1776      :    FBFF2E698B91FED2EE9BDF65A5FE;
1777      :    7ACF1C4D9FDADF053DAFAFEA4576;
1778      :    F09716E9CD5EF04CB9AAEDC77D66;
1779      :    5FA3DACC52D24A56446420F04134;
1780      :    7BA193916C2B5CE5DD185E517154;
1781      :    5F92E90C74DF56B8D5CB52386886;
1782      :    5BED3AE709BF4225089CBD0E857A;
1783      :    934F26F409511037B098A7AF0532;
1784      :    D30B82D48F7D2836FCB829872230;
1785      :    BCEEEE9FFDEABE51F372445AD93F;
1786      :    9E9E8D89B3AF3DF57D01E072D905;
1787      :    9B98ED8EB54F39F9D768CAD0FB0C;
1788      :    B24F3F75DF97572E87ABCF6F0DE3;
1789      :    DC75C774AC8990541234EC7DDC9;
1790      :    44D4E5452806D4DA82183CE28FC;
1791      :    8B6736C03E1FA495DAC7A427475D;
1792      :    F82B93F81EB7A8857CBD576C81ED;
1793      :    B96757FEB3DFC9E4583FCCB8F3BD;
1794      :    458E715FBBEA4F9857275A769FEF;
1795      :    DC9A147EFDAA24BE1307E29CDDED;
1796      :    E8A6A45FEDCB09B059C1B2C89CEF;
1797      :    EFCB295F95D3BD65AF278EEF8E4A;
1798      :    D58F4467E9F2E8452027F6761C2B;
1799      :    5CE72417D9E0CC4007276EC29F0B;
1800      :    23F286028662580229C1C86B653;
1801      :    42425754A494512126DA092CA022;
1802      :    2A7793112AD600E520236EEB2959;
1803      :    7DF4559F899EDC50280AB15CC97A;
1804      :    7F94B13CA88A64502F10EA0ADFE9;
1805      :    3818A09C0984A4D2302682C3DFDC;
1806      :    7501EE10656A69DD61D56FEC7CDC;
1807      :    5742CB8A21FF6897F9E13233F494;
1808      :    D0CAE0A341C16DB762446A205884;
1809      :    7DFF305FBBDCC0521E0FB66F8FCB;
1810      :    5A5F14FFCD55C73C669EAA1E44FE;
1811      :    AFC59471BD1DCFBE4AAADC2D06D3;
1812      :    218E378DFC29DD9D87F42BDE8E9B;
1813      :    20B0C2AF1DE012D15E4499AEFB3;
1814      :    A413448EFDFA5D443125DDCEBEB9;
1815      :    CBDF1B5A7BDB35268D5F9C68B74A;
1816      :    AA4D54659967FB3825E6FEC2B6C3;
1817      :    4E9A7075E1949A7A0035CAC73C8B;
1818      :    AFAE375DFFEBCE42C7CF9B6F07EA;
1819      :    B36C377DC9FB8DA143979E4AD6C3;
1820      :    897F85750BB00E88C3FFA39E9446;
1821      :    24EC65F9EE5EF12CEF5D0C9EE767;
1822      :    34255EF382D2E74590910DC32966;
1823      :    10B5C6E54B5A0D8E6094BA06414F;
1824      :    CDC7170A6FDEDE58EE98F3ED3E5E;
1825      :    8D220356B18B6959DE08BA252093;
1826      :    D832D1103DE70E618EEF38654A98;
1827      :    4B831A9C3EF77B6476F15935BB42;
1828      :    66237345B482C864F4241C726A2C;
1829      :    220BC087857729A9DCBCE49248B4;
1830      :    F39CAEE489920A410417615EE03C;
1831      :    9EBCDDEC800A2D271D444201D50C;
1832      :    F2D0705BC181A4B845604B199C7D;
1833      :    43C71A2B048B6491A99C5AA14775;
1834      :    6F530C1D3FEB452169B2C24492D4;
1835      :    BDE845AB7D590D9772610AAC9DA5;
1836      :    B35942651C799B6704A1DFC204C0;
1837      :    B25CD6C55FF48DBA8080ACEEDC90;
1838      :    D076E5E4A52C65D9FF7CA4FFD55D;
1839      :    DA9B10E92F6DB1A57FD607F395E6;
1840      :    D78B1CD0DE5D9A46BCB9BDF71C76;
1841      :    4A4318519E5B9C02C8A4A4C72A62;
1842      :    F8596515A8D9D9533AE262E6A125;
1843      :    1A8EEC8819004D17F4532A7D8309;
1844      :    DAEEE1870C4B40A716AC78E4C08C;
1845      :    9269EE55C964407EE7184192C28C;
1846      :    E2C4E45447D6439F89D02D8EB7BC;
1847      :    B2AAC0E983CC4BB10B5E8E46DD28;
1848      :    DD4D1C619F16B720B19E9DDB257A;
1849      :    EF8650663B1B3F221D95854717CD;
1850      :    510B089A7C770DF255E4A76310F6;
1851      :    3DB2D04E718C10E1175572314B0F;
1852      :    6D0F812FC0E758A0C74472F45EC1;
1853      :    1C482C9657E158D8D590E2B08839;
1854      :    99AD2F9E65CA534EF014647D4ADC;
1855      :    21E8A29E714F419BF6B85E356A04;
1856      :    49A88100324E599CF5416865E3BC;
1857      :    7949F697D5ED61FF95EC54DE87AE;
1858      :    EDB7C3F486F8CDD4CF47D6E6DCCE;
1859      :    B9F6E7ACD5FC7985DF6458FADCCF;
1860      :    EA5CCCF56224B546643F265463F6;
1861      :    EE0A20355A088D4A66BF9D470FE8;
1862      :    50EF5E579E58270A2DBABCDC03F2;
1863      :    20B561A0C00E340942C32402C449;
1864      :    88BC65B2D8EAFE6B76F7B4DEFDC3;
1865      :    4CEC2314C6AC3E4AF06C60D70D89;
1866      :    EA5890234CE3A283670A621948A2;
1867      :    47499B931FBDC4FC62DF7A247A29;
1868      :    6B51535146F3404CE512C5E360C0;
1869      :    1071F472C70CAF6453644DBF1007;
1870      :    B21CEFBD0850979E403D0F6E0563;
1871      :    802038A80809D1060C1A262604A0;
1872      :    3241BD84888884092007114E3238;
1873      :    B0070A528C10ED2180E484C22391;
1874      :    304CE574904011D64CE52A824089;
1875      :    8FC35B6EEA88798987BD7CCD5CB;
1876      :    39F8A7B9F388F7AE7A863A29F467;
1877      :    58E49E8E7999CCCF000E336D1A55;
1878      :    44BE692FE1F63CFCF321FEF6DFB9;
1879      :    70E2A01061017FCF373064DFEEAF;
1880      :    90E6E7104A9044CFAAE26CE46909;
1881      :    CFB83F5BBDF123386F1FFC53ABDB;
1882      :    8998FC16A3A3F17A968C79BB78F2;
1883      :    1D9C3C37E16DF8E0FFDF72B779F6;
1884      :    4222E98B948E68E549F06090C925;
1885      :    7041D580880F55C7A34863B8484D;
1886      :    6D304698E0F6FEE5B1CB17DCFEFB;
1887      :    28F084A84C2825B76A19F1D8C177;
1888      :    BAFD56C54350B712F813533DA07A;
1889      :    C61112548B9DBE12BD9A8FDFA360;
1890      :    95CCCE56695D3F0918CE8778236C;
1891      :    51D503B10C19430C58881664146E;
1892      :    31A815B64D8165851009F02C81CB;
1893      :    4F075A7DB395BA6016C7994786B9;
1894      :    F1F3D06A7176A6D145F1BBFF4C9;
1895      :    936F015BE9F78248B01BD4FBAA1C;
1896      :    BB08FC6B35C0B5B04B55B067A523;
1897      :    8EB53A3BFBB7B6551BB7AF4BB79B;
1898      :    CB9F1B392AA5AC701D42CF43D51B;
1899      :    FE21F39A957779FA5F63E6DB4D9F;
1900      :    AFF4BF9E8DB27D192F7F2F7AACD9;
1901      :    DA496988F30730B576506E15FABE;
1902      :    836FE290853B43DBB04E4CFA9186;
1903      :    22E5E5897E01DD9725003699B0;
1904      :    F096D4E3B3AEB9B593768BD6D589;
1905      :    1FCA98F6585C35747839070167AE;
1906      :    63CE12400E8BA7064D9BCFE78C47;
1907      :    1A1F1CD196578321D42DDCC7158E;
1908      :    49405EFF8CA98EB97675FB24F407;
1909      :    F3FD694E69F90C3FC5EAEA05CAC3;
1910      :    EECC15FD6E7D34AFDB8CAA1E450B;
1911      :    938D276B525B99DB83AA13E71B41;
1912      :    8F1CD06E12D98790A5393077B40F;
1913      :    6CC1784D52CA1B308D854F93F37E;
1914      :    480B14C90E11C2A0782025837675;
1915      :    625B02195D48E6667C93E4AA2162;
1916      :    132B0FC1865FA328BC9BC5872176;
1917      :    F97DE7D5C23EF2F9E7670A3C0BAD;
1918      :    31C0DDCDCA4CB8F5E172AC96CA25;
1919      :    1288E85512791FF225182FD23A03;
1920      :    DE0BAB33EE784260EFBCDCEFA7B1;
1921      :    6C8E0375294FB3241F8F5AE604D0;
1922      :    4F863A70E84F3E60C9EDA1201AC0;
1923      :    4E33EA6E368DC86C368573605A45;
1924      :    6423C1CFB525F8A545A0F2D26A0D;
1925      :    60A9E5A0F5A652BE5340E092C513;
1926      :    10CEC5BE4D764BFFC3F4E7BE75BF;
1927      :    37CBA326B1FE795BF16C41737E98;
1928      :    4F00D1A6306E58F5476468904B9D;
1929      :    BB7BBFC55DA1E3FBEDEF5D8B11F2;
1930      :    E7E6BEED9DF3B19283E7CB225E84;
1931      :    73E4C2EF525E90AD480D1288DDAC;
1932      :    904B04C0F70C4076BB2ECD7E253C;
1933      :    AE1F7AB31A01B7342DBB9F4DEF5F;
1934      :    259B38A0556E82B76D8BD7DF0767;
1935      :    D481F516EA4A659246C0261B7385;
1936      :    3DC1501BF84590C31D21336C456D;
1937      :    F2E9BB7BD6ABD098F319F8A0EFC7;
1938      :    BBFF329CE1B9D54A085B5E2DD57A;
1939      :    F7220C66A3DA490881C13A274414;
1940      :    FC4C88BF32FE4FA64B0ED6A7D1CF;
1941      :    5683001BBAAD4D098F05947FB229;
1942      :    2065066A2AD05D57A0A2974EAF61;
1943      :    917D5E758C906F5305AB8C6AB402;
1944      :    4DAFA190BBB77AD4FD35DA227BF6;
1945      :    6BA732C8E777E84D5935BE4F176E;
1946      :    91A4B4EB8D5EDA1DFAB4FC4B4DB4;
1947      :    D09FA693C5EACFEBB7DBC88ADE47;
1948      :    B523A10E8A1A099DBE4A00BADACB;
1949      :    B9EAE78FE5F9498077654EFE1A86;
1950      :    B8FC6F9EE8155774FA3B9D9F2C7B;
1951      :    94E16739858AFC320BB9FC7066A;
1952      :    9F8F5FD599D83F4734E60FEE9DAA;
1953      :    755BC0DFDAA4438E0073C7CA2CC8;
1954      :    F62D12D5FA11CB8AA6B9D5FEACCC;
1955      :    8F305875BAB1EF01C83FFDFDC048;
1956      :    5C0F0D63797DAEA0A3D408912350;
1957      :    6E4A9A88930EB6206CD9B0194910;
1958      :    62116D4066070630B8B8C0096372;
1959      :    95FCE58F431C4A3FB220719AEF05;
1960      :    ADE80497C1184DF8BB40661A4E01;
1961      :    64220D1DF1EAB49177ED6012D5AF;
1962      :    F96D5A780B30CB088B999BCBAEDA;
1963      :    8B633E7587F0E22E22BBCF2ABEE1;
1964      :    44F3BB7812932D0EA0BD79AEE060;
1965      :    4F821F433A8A18603C8DF0559556;
1966      :    CEA202812C3E0C74C90910675C8B;
1967      :    A9E4C0D4D942415F54442AA0188C;
1968      :    30E0CDABC29A808DE2802098C25F;
1969      :    3051F1D45D926E958894E621C609;
1970      :    37D49D9C99C0778606C9011BC0A2;
1971      :    B05CE7864B08479FF0DAC998213C;
1972      :    8AE5E6C88E194A9EDC9DEEA9708D;
1973      :    D9F1715C8E3B44BEDE969505EBD8;
1974      :    DF5D16DF87F9A3AABCBBCF6AB4B8;
1975      :    FBEF33F43C4717C0568D4221969F;
1976      :    BEA0D8E239E0F89C69D4FA990E5;
1977      :    DC02600AEA0463509604706B2328;
1978      :    C407C145DB14F9491D0620EE9B09;
1979      :    A18CB047EEE45840A31666DEBCA8;
1980      :    A594D68644E25A970B02180017E;
1981      :    7B946D006F2DA7825CA882A4C46F;
1982      :    89707B644EC966071A999077D559;
1983      :    FFBD13E6CDEF7FC284E5B761F5DB;
1984      :    DDE1323EF3FEFB00F2443A57BE8B;
1985      :    450920533F651868903475E10B63;
1986      :    704CC311A771C94E20B2869E06C8;
1987      :    602EC941C9CA4C2CE504B0C68380;
1988      :    3062E5A581C653FD434468B0D085;
1989      :    8F2C639038CD75485E7B3C34C73A;
1990      :    CB1743749995E20D7C623AC1EC2D;
1991      :    D3A84D904F99A2A478083C82606B;
1992      :    67CAC22EEEEB3AF1F7346A170A16;
1993      :    DD9C35BEE4E0CD0FD0B4B4A0EC2;
1994      :    4E6D1853CD5F0604B4D81FDE3DBA;
1995      :    98FDAFD70D82E70A6547C44F0D13;
1996      :    DA82C441A0B4F2F5357609D305F7;
1997      :    4E9BDB41B6B7EAF07CF76B4369B2;
1998      :    108AE4A3E16452F958E06111F924;
1999      :    728ADDCE562D5D60512A6A435BBA;
2000      :    F84046957C08515ED811BF0C7B43;
2001      :    947D32BB8B51E707AC9F9DBFA41A;
2002      :    E7761048BA02AE413C1EDCF13651;
2003      :    CF071B51CAD1AD6F2FDFF5DB1416;
2004      :    CE32790C3DA65A6456352971183B;
2005      :    4B18B90430A130D04F4C0200C109;
2006      :    A4987F1E50A2B0A94F4073157D1D;
2007      :    143A2C50E2EC1DBF85A9AC9C6125;
2008      :    CD73E823367FEEEB7FEF407CA029;
2009      :    58A40C0474CD9A791DBCF8E7DE06;
2010      :    AF9FA179F7DF9FA155FFFF6F1BDB;
2011      :    EF9EA36B32F73EE04527BA75BA8B;
2012      :    CF1D2A5BB2C7366097B48C58940B;
2013      :    59669163FEE2FA98602F01CA1E23;
2014      :    E80F83EBC4F7E2FD00F681CE8A23;
2015      :    6C2E79219CA242E41274C303C201;
2016      :    E20EB37B85F79E28AEBFDB9D36DA;
2017      :    E74EFB7F35F5BA021BAFCF76D6DA;
2018      :    E77F587DADE6AFC853BFFE0F9CAF;
2019      :    4B9E5A6E948E1B626DDD18D6A64A;
2020      :    58EC41A8E2CE4B10C0412C8AC3FB;
2021      :    2AEE04D740428255849483299E9B;
2022      :    BDE54FBB60A6CDA1E2DBB2CCDF5E;
2023      :    F9D00BCFCFF9EEDFB2DC8A61BAB2;
2024      :    7B443B9D5DA1C116236A326915C3;


2025      :    10AC312B5F5C80F54E8146048339;
2026      :    503430E0831C901004E5164EB065;
2027      :    B5933FF478A3C1737251A3831AB2;
2028      :    2DB21E12FB8370EEB9DB279A43B3;
2029      :    BB2D10B4052478038E6163CA3188;
2030      :    102F232E15553C0302A1718E25C4;
2031      :    231B5E86FE2360DA3212AFB03A54;
2032      :    86DE7408BBD200599FB4D87577F0;
2033      :    9AC5A5ED2B9ED3579D7A7A7649A1;
2034      :    CDE4BD7328DEF3DFFF773B3ECA85;
2035      :    E566F36A355EFF27C5E788BBDEE1;
2036      :    66F2D9FB74CEDD8AC7C7A989C7E8;
2037      :    5CFEE95D917D960106C12C8DB756;
2038      :    3465707CDD5CB7252E032DCF26C4;
2039      :    F3B31A14E8A5205AA337D5BE1FE3;
2040      :    A30A9A940E2A2C50AF12C0FB03C2;
2041      :    90B5605C8794413A2C2857C6F5C9;
2042      :    109DE02F4715D227246234C655C4;
2043      :    2574792086BD725784A7C748A31F;
2044      :    402C3A2086B431D3E850D4CC262D;
2045      :    A711B7C1EAA391DA34D8A62F32B5;
2046      :    360195B07BC1B4D69778267BC0BA;
2047      :    722294A1C6CB6F445B2F14CD7DC9;
2048      :    22A744F45A09FF270EAE79C039E8;
2049      :    BF4AA3DE3D1B3F23B36A19FF49CC;
2050      :    27CAEF9BBD4AAE2B334B69BF48DA;
2051      :    5C7F2878893C6F09C56F78FA6444;
2052      :    D17D6A9ACA6EAFA0FF64B8FE0A24;
2053      :    A94DFE0CA00CC79EA7EE8365B37;
2054      :    CB10DDE0F2C2C3E89DFE9AF05A3A;
2055      :    DF5B8E922E83ED93B17D91705BEA;
2056      :    878F9B44B4888DBBB9CE69BDD992;
2057      :    B5DA1AD5AB2D7677FFBBAEBC866;
2058      :    FAF5E1BF6CE482BFFF93222E4E56;
2059      :    6F0B95F661E80D51DEFA09B512D4;
2060      :    EB21DCF2B2C894D0DDBECB31B8E8;
2061      :    38FDEBFBD119FF27820FC8CF74E4;
2062      :    84FE8B7F642EAE8FA219780E63E8;
2063      :    5506045C877944089800D5C1B43F;
2064      :    910C2614B783468824E1D1D1E7FB;
2065      :    9DF637E97AB263BFFBD5E322CA33;
2066      :    DFD7BDEDB3DEA3BCF9F5B72EC237;
2067      :    DD6AE8CB5A0B0E096E57AF31FC57;
2068      :    7760E494340948624D8F8070D9C3;
2069      :    7E91B74F0EE0DB71497B8C0A44CB;
2070      :    79D0A6062E6F07D065FA064F1034;
2071      :    DAC8678390FC43362B867D13061F;
2072      :    B650317F52A0B4151ADD24667;
2073      :    442460C1235C02141CF40409A267;
2074      :    21B4E479079C921104311564B545;
2075      :    ECBB1756BC8AABD3A4F3A59BDEA7;
2076      :    7412DF8E6EE2C4ED813935BB13B3;
2077      :    12EE431DC6AF79204C225147A1CE;
2078      :    B0CB63374577FD23460314C66D46;
2079      :    BD16A7D884F96C309161F63638;
2080      :    CABD5B7C89BC2AFA8B96F0CEFAFB;
2081      :    BB0936EC6A8BD27CBEB28721E671;
2082      :    F5E2D1C25150D15D129957CCFFBB;
2083      :    EF14A33C1526DCCB746941ECE5CD;
2084      :    4679021E25A4B4B355896A3B89D1;
2085      :    1295C81C224C15C489466443E1D;
2086      :    60214481922443544CB7E6C4164D;
2087      :    5E6D049A773C06892840530B235;
2088      :    5E46D96B1D736778E4A49971D42B;
2089      :    F88A33CFC6AD7F2EF31747DAC73B;
2090      :    F5DA139B4F8B6F0F4315B3FB433B;
2091      :    C843E9D959DB172AB57B9B3D0DF6;
2092      :    5A49CD5F7FF3F3AEB50A9371CEB7;
2093      :    7F9053421DCD218D89695B19E40B;
2094      :    741B96593A7EAC17C15D55D5B6CF;
2095      :    168641BF5D0BA324D84745E715C;
2096      :    206F41C1D561735E6804535E75FA;
2097      :    6E59DE167E8A6A06A8C3CF4E0951;
2098      :    83504E863413E938E15146251CBD;
2099      :    FAD0D29A7BF2C0EE6AF9A5439E73;
2100      :    6C529BC758EEB7FA95D1BB215840;
2101      :    7816A4E0B1EBF60058F80FBA1807;
2102      :    2F2641C053E81992D9D95322E2FB;
2103      :    873C69108615D859C9162445761D;
2104      :    722D681124B7ED4169068B841004;
2105      :    25F3F561882DE11B731EA42E55F5;
2106      :    37DEBB7C4E7DBBF6DB3209EE7A74;
2107      :    FB0A9B3380C9EFA04EEF49D429FE;
2108      :    F0128EF64A0BFF704A3A51C179BB;
2109      :    49656C3CC60D545B3CE4CF0DA37B;
2110      :    7A315CAB3EA543DB6815DBE66776;
2111      :    7C59F8AB714D1315BD44494B071;
2112      :    39B0CD791896A5A464F0A1135CC;
2113      :    F67A20ABC1BC7F96FBA5ADE2A22A;
2114      :    13CF059953491B1E69B1F712E64E;
2115      :    BE5317F350C0FF2562C168039B6B;
2116      :    B49687F38C4B7F9EA6432901CF6B;
2117      :    53A24C1493294D684E0415C17C53;
2118      :    F28246169B0944087B8D94D1FD5F;
2119      :    CCC737ED0B12328C89F5E3228223;
2120      :    CDC4A5E92BD2328F9D719332C22B;
2121      :    FA62DADB7E0A1CDBA7F0DA7BFAB2;
2122      :    3280D79AA1633A19A67A2C197282;
2123      :    2C57AA4B95510E21D17B585EE121;
2124      :    D593FE288613C18947C2B235D494;
2125      :    96EFEE815A658FFB2392BE667E5F;
2126      :    EB155F99F0F024EDB954BE673610;
2127      :    DED6B76D2D57977517EA193DE4E0;
2128      :    85D478DC097CD631D769108BB694;
2129      :    D3A2872843F3D19A304558FA9CE;
2130      :    871C821ABC1A49A18A9DFBAC098F;
2131      :    B7EB0EBDE655583324343F443D3C;
2132      :    20DDFA7F6077A26726476CCC1DC4;
2133      :    DD63796F8E77DB1AA8EF9D79EF13;
2134      :    C3D445B50CE7474BA6D51160F516;
2135      :    8AB5BBB7DC40BC9345DC8E1DD1E0;
2136      :    A91980A66BFDAB0E4A73CE8F70C2;
2137      :    B4EACC82B46D7E3D688F1D932227;
2138      :    308749A5720F1E3438803C933641;
2139      :    B2DB757A55797F2EA607484F6DE8;
2140      :    17EFEBBF5D763F2787C7698B7DAD;
2141      :    458E061A976144283A0845E1BE3F;
2142      :    A18A021C8B2B4C180A00C0D0B718;
2143      :    9FD634691A9023DEDFDEF7264E31;
2144      :    4FD4B6E97B9263AC8DDF926CC831;
2145      :    175448884112B4D9E23C38BCB144;
2146      :    15FB780B85DCBF9D3BA3793E2D54;
2147      :    3BE86DE40B1E6656F35737AA6DE6;
2148      :    223FB1756634235BFB867BBE594E;
2149      :    1479D35E2E4DCE6F242AC19F5DDD;
2150      :    A1117A362145C6E82426A0DD9CD0;
2151      :    227D5E13F4212CE73611ECF73FA0;
2152      :    ECFC3F1F7D56BCCFC39C58365BA1;
2153      :    95C2D4E82779464CBC2955C4B636;
2154      :    C48CA76FB76946E8203495333536;
2155      :    FB1B139668ADE5E8FBDAEFE86F52;
2156      :    DF1A1BD2FAA5C4F9F15EF3714B31;
2157      :    661C4809D39D096C4A87A4087A5F;
2158      :    784D1D97D524537AC0C6EBA3EE21;
2159      :    AB825A10F361E9C8321215000653;
2160      :    E0878A5511E92D582A09C859AD43;
2161      :    FA5C322D84BD7F82D1AD87E3EE0B;
2162      :    556B014445697A1AF94143D243E2;
2163      :    AF4FDAC891003C9B65C878FD294E;
2164      :    999D389BB1DCBF81BF4BDFBB78D2;
2165      :    BB50FBEC7DBCFB9FF7727F28E7CA;
2166      :    E931FB59E6087943E0324B3EE0C2;
2167      :    7F28C8164E65CCE87E7AC6F47DD7;
2168      :    6119581090A19148759ACEF07DD2;
2169      :    65DEA5BF55EB4E5228062CEF356;
2170      :    A67C8B5EF97FFE37970264EF7A6D;
2171      :    73621D1E7B8543CCBB11D5C25F33;
2172      :    60492CC4124365AC0713F1D0353F;
2173      :    1D782B8D66B6C4CA956E524769F9;
2174      :    5739B304E4A4C4A9952BC27ECDD1;
2175      :    3F5ACA5E3DFE3C9323C8B8FF99E5;
2176      :    3CDF4A6A285EBF03EBCF281FFBD8;
2177      :    333383B6C8A87DCF6F3BEAAF03D2;
